node {
  name: "PTBProducer/raw_data"
  op: "Const"
  attr {
    key: "_output_shapes"
    value {
      list {
        shape {
          dim {
            size: 12216
          }
        }
      }
    }
  }
  attr {
    key: "dtype"
    value {
      type: DT_INT32
    }
  }
  attr {
    key: "value"
    value {
      tensor {
        dtype: DT_INT32
        tensor_shape {
          dim {
            size: 12216
          }
        }
        tensor_content: "\017\000\000\000n\000\000\000\213\000\000\000\014\000\000\000x\000\000\000\032\002\000\000\266\001\000\000A\000\000\0002\000\000\000P\000\000\000-\001\000\000\000\001\000\000p\004\000\000\032\004\000\000\000\000\000\0009\000\000\000\213\000\000\000/\000\000\000\222\000\000\000(\001\000\000\000\002\000\000j\001\000\000\244\000\000\000\016\003\000\000\205\002\000\000\031\000\000\000\001\000\000\000\210\001\000\000\225\001\000\000P\000\000\000\022\000\000\000\000\000\000\000\222\001\000\000\034\001\000\000\353\000\000\000\016\000\000\000\037\001\000\000\022\000\000\000\n\000\000\000C\001\000\000\\\000\000\0000\003\000\000\374\000\000\000\274\001\000\000\326\000\000\000.\001\000\000P\003\000\000\000\000\000\000q\000\000\0009\000\000\000Y\000\000\000\357\003\000\0001\002\000\000\001\000\000\000i\000\000\000i\000\000\000\003\000\000\000\266\000\000\000p\000\000\000\025\000\000\000\356\000\000\000;\000\000\000\274\001\000\000\326\000\000\000\210\001\000\000\225\001\000\000\000\000\000\000?\000\000\000\261\000\000\000/\000\000\000\344\000\000\000m\002\000\000\317\001\000\000\365\000\000\000\344\000\000\000\250\000\000\000\255\000\000\000\305\002\000\000\031\001\000\000X\002\000\000\000\000\000\000q\000\000\000E\000\000\000K\000\000\000\247\000\000\000`\000\000\000\252\001\000\000\357\001\000\000\364\000\000\000\001\000\000\000P\000\000\000\022\000\000\000\002\000\000\000\366\000\000\000/\000\000\000\222\000\000\000(\001\000\000\000\002\000\000\373\000\000\000\375\000\000\000[\000\000\000(\000\000\000U\000\000\000\274\001\000\000\326\000\000\000c\002\000\000\210\001\000\000\225\001\000\000\000\000\000\000\n\000\000\000\037\001\000\000\312\000\000\0002\000\000\000P\000\000\000\001\000\000\000&\001\000\000U\000\000\000\002\001\000\000\245\001\000\000\001\000\000\000c\002\000\000\210\001\000\000\225\001\000\000-\001\000\000\000\001\000\000\200\000\000\000\022\000\000\000K\000\000\000\265\000\000\000\332\000\000\000\030\001\000\000\000\000\000\0009\000\000\000\343\000\000\000\024\000\000\000\310\000\000\000\255\001\000\000z\001\000\000\261\000\000\000/\000\000\000\344\000\000\000A\000\000\000\326\000\000\000\366\001\000\000\030\000\000\000\037\000\000\000\200\000\000\000.\000\000\000a\000\000\000E\001\000\000!\001\000\000\032\000\000\000p\000\000\000;\000\000\000\316\000\000\000G\000\000\000\001\000\000\000\210\001\000\000\225\001\000\0002\003\000\000\314\000\000\000\002\000\000\000\006\000\000\000\\\000\000\000q\000\000\000\000\000\000\000\356\000\000\000;\000\000\000/\000\000\000\222\000\000\000(\001\000\000\000\002\000\000j\001\000\000\244\000\000\000\016\003\000\000\205\002\000\000\031\000\000\000\001\000\000\000K\000\000\000\210\001\000\000\225\001\000\000\257\003\000\0001\003\000\000\267\001\000\000X\002\000\000\000\000\000\000M\000\000\000\024\000\000\000\377\000\000\000U\000\000\000\261\000\000\000/\000\000\000\344\000\000\000\345\000\000\000\326\000\000\000\366\001\000\000\030\000\000\000\037\000\000\000A\000\000\000\274\001\000\000v\003\000\000\266\000\000\000p\000\000\000J\000\000\000\364\001\000\000\025\000\000\000\345\000\000\000\357\000\000\000\306\001\000\000\201\001\000\000\001\000\000\000b\002\000\000\374\002\000\000A\000\000\000u\000\000\000\315\000\000\000\221\000\000\000\272\000\000\000\250\000\000\000-\001\000\000A\001\000\000\244\000\000\000U\002\000\000\336\001\000\000\013\003\000\000P\003\000\000\000\000\000\000D\000\000\000\017\000\000\000r\000\000\000j\001\000\000\244\000\000\000M\000\000\000$\000\000\000\005\000\000\000\006\002\000\000&\000\000\000\217\000\000\000+\000\000\000\026\000\000\000\001\000\000\000\014\001\000\000\315\001\000\0003\000\000\000\000\000\000\000}\001\000\000;\002\000\000\224\000\000\000\205\000\000\000\"\001\000\000\271\001\000\000\001\000\000\000,\003\000\000\005\000\000\000\333\001\000\000\364\002\000\000\032\001\000\000\035\001\000\000\000\000\000\000\022\000\000\000\261\000\000\000/\000\000\000\344\000\000\000A\000\000\000\326\000\000\000\366\001\000\000\030\000\000\000\037\000\000\000\001\000\000\000\323\000\000\000\356\000\000\000\336\000\000\000\324\000\000\000A\000\000\000\323\000\000\000\026\001\000\000\364\000\000\000\324\000\000\000\350\002\000\000\321\000\000\000\033\000\000\000\"\001\000\000\271\001\000\000\001\000\000\000\032\001\000\000\035\001\000\000\002\000\000\000(\002\000\0006\000\000\000;\003\000\000,\000\000\000\001\000\000\000S\000\000\000H\002\000\000\032\000\000\000p\000\000\000J\000\000\000\246\000\000\000\000\000\000\000F\001\000\000\032\001\000\000\035\001\000\000\257\001\000\000\257\001\000\000\003\000\000\000\030\000\000\000\037\000\000\000\365\000\000\000o\003\000\000j\001\000\000\032\001\000\000\035\001\000\000\001\000\000\0000\000\000\000\241\001\000\000\371\000\000\000,\000\000\0000\000\000\0007\001\000\000\241\001\000\000$\000\000\000\033\000\000\000\002\000\000\000/\000\000\000\222\000\000\000(\001\000\000\000\002\000\000j\001\000\000\244\000\000\000\005\000\000\000;\001\000\0001\002\000\000\027\000\000\000\210\001\000\000\225\001\000\000\032\001\000\000\035\001\000\000\001\000\000\000U\002\000\000\255\000\000\000\316\000\000\000\237\000\000\000E\000\000\000\000\000\000\000\356\000\000\000i\000\000\000+\000\000\000\022\000\000\000\261\000\000\000/\000\000\000\344\000\000\000A\000\000\000\326\000\000\000\366\001\000\000\030\000\000\000\037\000\000\000!\001\000\000h\000\000\000\366\003\000\000\210\000\000\000\032\000\000\000p\000\000\000\225\000\000\000\316\000\000\000\001\000\000\000\300\001\000\000\t\003\000\000\314\000\000\000\002\000\000\000\006\000\000\000\323\000\000\000\351\000\000\000\352\000\000\0000\000\000\0006\000\000\000\324\000\000\000\033\000\000\000B\000\000\000N\001\000\000\211\001\000\000\344\001\000\000Z\000\000\000\220\001\000\000\304\000\000\000Q\000\000\000Q\000\000\000\000\000\000\000\024\000\000\000V\000\000\000+\000\000\000&\000\000\000#\000\000\000\014\000\000\000\001\000\000\000\014\001\000\000\374\000\000\000\224\001\000\000[\003\000\000x\000\000\000\244\001\000\000O\001\000\000\006\000\000\000X\000\000\000\227\000\000\000\036\003\000\000\017\001\000\000o\000\000\000\374\000\000\000^\000\000\000;\000\000\000\351\000\000\000\352\000\000\0000\000\000\0006\000\000\000\000\000\000\000\377\000\000\000\004\003\000\000\362\002\000\000=\000\000\000&\000\000\000o\000\000\000&\000\000\000#\000\000\000\347\002\000\000\331\001\000\000G\003\000\000\026\003\000\000Y\003\000\000`\003\000\000U\000\000\000\021\000\000\000\007\000\000\000\036\000\000\000\227\000\000\000\023\000\000\000+\000\000\000\022\001\000\000\000\000\000\000h\000\000\000R\001\000\000\003\000\000\000\356\000\000\000;\000\000\000\035\000\000\0000\000\000\0006\000\000\000\022\000\000\000\004\000\000\000k\001\000\000\275\000\000\000\264\000\000\000\224\000\000\000\205\000\000\000\302\000\000\000\206\000\000\000&\000\000\000#\000\000\000-\001\000\000\000\001\000\000\000\000\000\000\255\001\000\000\177\000\000\000S\001\000\000\010\000\000\000R\002\000\000l\000\000\000\010\000\000\000\340\000\000\000p\001\000\000W\000\000\000\334\000\000\000\252\000\000\000&\000\000\000#\000\000\000/\000\000\000\207\001\000\000\200\000\000\000K\000\000\000\265\000\000\000a\000\000\000\207\000\000\0002\000\000\000\010\000\000\0004\002\000\000D\001\000\000\214\000\000\000I\000\000\000\002\000\000\000Y\000\000\000\200\001\000\000\035\002\000\000\003\000\000\000\004\000\000\000m\002\000\000\035\000\000\0000\000\000\0006\000\000\000\276\000\000\000\231\000\000\000\000\000\000\000*\000\000\000\r\000\000\000\370\000\000\000\261\001\000\000T\000\000\000[\000\000\000&\000\000\000o\000\000\000\010\000\000\000&\000\000\000G\000\000\000\010\000\000\000&\000\000\000E\000\000\000r\001\000\000\020\000\000\000G\002\000\000\223\002\000\000\002\000\000\000x\001\000\000\003\000\000\000\356\000\000\000;\000\000\000@\002\000\000\377\001\000\000D\001\000\000E\001\000\000\010\000\000\000\352\001\000\000r\000\000\000\251\000\000\000\217\002\000\000W\000\000\000\373\000\000\000\375\000\000\000?\000\000\000v\000\000\000]\000\000\000\206\001\000\000\024\000\000\000\332\001\000\000\317\001\000\0000\000\000\0006\000\000\000\361\003\000\000\330\001\000\000k\000\000\000\274\000\000\000\001\000\000\000\214\000\000\000I\000\000\000w\002\000\000\000\000\000\000&\000\000\000o\000\000\000{\000\000\000P\000\000\000?\001\000\000\256\002\000\000\000\000\000\000&\000\000\000G\000\000\000\263\002\000\000\375\002\000\000\214\000\000\000I\000\000\000\001\000\000\000?\001\000\000{\000\000\000\014\001\000\000\315\001\000\000\000\000\000\000&\000\000\000E\000\000\000\320\000\000\000I\001\000\000\214\000\000\000I\000\000\000\207\000\000\000;\001\000\000\014\001\000\000\315\001\000\000`\000\000\000\244\001\000\000\023\000\000\000\374\000\000\000W\000\000\000\002\000\000\000\006\000\000\000\311\000\000\000o\000\000\000\000\000\000\000\323\000\000\000\351\000\000\000\352\000\000\0000\000\000\0006\000\000\000\324\000\000\000\033\000\000\000B\000\000\000\027\000\000\000N\001\000\000\211\001\000\000[\000\000\000(\000\000\000\000\000\000\000\236\000\000\000\n\000\000\000\003\000\000\000\333\000\000\000\340\000\000\000l\000\000\000\220\001\000\000L\000\000\000\013\000\000\000V\001\000\000\024\000\000\000\360\003\000\000\031\000\000\000\344\001\000\000Z\000\000\000\220\001\000\000\000\000\000\0009\000\000\000\003\000\000\000\013\000\000\000s\003\000\000\255\000\000\000\001\000\000\000V\000\000\000&\000\000\000#\000\000\000\014\000\000\000\014\001\000\000\374\000\000\000\224\001\000\000[\003\000\000x\000\000\000\244\001\000\000\002\000\000\000?\000\000\000P\000\000\000\022\000\000\000\036\002\000\000\n\001\000\000\016\000\000\000\353\000\000\000\000\000\000\000&\000\000\000#\000\000\000\014\000\000\000H\000\000\000\310\002\000\000\247\002\000\000\001\000\000\000Z\000\000\000\272\000\000\000\003\000\000\000\323\000\000\000\264\001\000\000.\001\000\000\324\000\000\000A\000\000\000\323\000\000\000\320\000\000\000I\001\000\000\324\000\000\000\000\000\000\000\377\000\000\000\017\001\000\000\000\000\000\000\351\000\000\000\352\000\000\0000\000\000\0006\000\000\000\304\000\000\000Q\000\000\000Q\000\000\000:\000\000\000\003\000\000\000\025\002\000\000\251\002\000\000\030\000\000\000\037\000\000\000\320\000\000\000I\001\000\000\010\000\000\000\261\000\000\000M\001\000\000\320\000\000\000I\001\000\000\010\000\000\000\264\001\000\000.\001\000\000r\001\000\000\035\000\000\000V\001\000\000\024\000\000\000\243\000\000\000Z\001\000\000;\001\000\000\223\000\000\000\002\000\000\000\006\000\000\000\216\000\000\000\017\001\000\000o\000\000\0007\000\000\000)\000\000\000&\000\000\000#\000\000\000\014\000\000\000J\001\000\000Y\002\000\000\246\000\000\000\360\001\000\000\n\000\000\000\232\000\000\000\000\000\000\0002\000\000\000\005\000\000\000\356\000\000\000;\000\000\000=\001\000\000/\000\000\000\355\002\000\000\010\000\000\000\246\000\000\000\360\001\000\0007\003\000\000%\000\000\000M\000\000\000$\000\000\000,\001\000\000\345\002\000\000S\001\000\000(\000\000\000\304\000\000\000Q\000\000\000Q\000\000\000\002\000\000\000\006\000\000\000\004\000\000\000{\000\000\000\217\000\000\000\304\000\000\000Q\000\000\000Q\000\000\000\000\000\000\000(\000\000\000z\000\000\000\010\002\000\000M\000\000\000\212\003\000\000D\002\000\000\250\000\000\000,\001\000\000\001\000\000\000\322\000\000\000\350\000\000\000\000\000\000\000\263\001\000\000\020\001\000\000@\000\000\000`\000\000\0002\000\000\000\250\000\000\000,\001\000\000\001\000\000\000\030\000\000\000\037\000\000\000\000\000\000\000_\000\000\000\246\000\000\000\033\000\000\000%\000\000\000\355\000\000\000,\001\000\000\345\002\000\000{\002\000\000b\002\000\000\004\000\000\000d\000\000\000\002\000\000\000\250\000\000\000,\001\000\000E\000\000\000\000\000\000\000%\000\000\000\024\000\000\000\233\001\000\000>\000\000\000\320\000\000\000I\001\000\000\220\000\000\000\020\000\000\000\030\000\000\000\037\000\000\000\001\000\000\000Z\000\000\000\261\001\000\000\000\000\000\000\224\002\000\000\345\000\000\000x\000\000\000\025\000\000\000\210\000\000\000\206\000\000\000\010\000\000\000\\\001\000\000_\000\000\000\374\000\000\000^\000\000\000\010\000\000\000*\000\000\000\r\000\000\000Z\000\000\000\261\001\000\000\010\000\000\000\336\000\000\000#\000\000\000 \001\000\000\013\001\000\000\010\000\000\000\345\001\000\000\r\000\000\000 \000\000\000\013\001\000\000\010\000\000\000\014\003\000\000B\003\000\000\037\002\000\000Z\000\000\000W\000\000\000\227\000\000\000\241\000\000\000\034\001\000\000X\000\000\000X\000\000\000\020\000\000\000\274\001\000\000\237\000\000\000\002\000\000\000\n\000\000\000\232\000\000\000\030\000\000\000\037\000\000\000\001\000\000\000Z\000\000\000\261\001\000\000\204\003\000\000\222\001\000\000\000\000\000\000%\000\000\000w\001\000\000\005\000\000\000\206\003\000\000&\002\000\000\016\002\000\000\026\002\000\000\002\000\000\000\005\000\000\000 \001\000\000\013\001\000\000\225\000\000\000G\000\000\000\004\001\000\000\000\000\000\000E\000\000\000\231\000\000\000\270\000\000\000@\000\000\000(\002\000\0006\000\000\000(\000\000\000z\000\000\000\343\002\000\000f\004\000\0000\000\000\0006\000\000\000\000\000\000\000?\001\000\000\256\002\000\000\315\000\000\000\250\000\000\000\001\000\000\000Y\000\000\000g\000\000\000\030\000\000\000\037\000\000\000\000\000\000\000*\000\000\000\r\000\000\000\033\000\000\000%\000\000\000w\001\000\000\003\000\000\000&\002\000\000\016\002\000\000\026\002\000\000\001\000\000\000\256\001\000\000\251\001\000\000\002\000\000\000\006\000\000\000\264\001\000\000.\001\000\000:\000\000\000\010\003\000\000A\002\000\000\005\000\000\000\030\000\000\000\037\000\000\000\220\002\000\000I\000\000\0003\000\000\000\000\000\000\000\221\003\000\000M\000\000\000$\000\000\000\264\001\000\000.\001\000\000\030\000\000\000\037\000\000\000\320\001\000\000\000\000\000\000:\000\000\000M\000\000\000$\000\000\000\264\001\000\000.\001\000\000\323\000\000\000\035\000\000\0000\000\000\0006\000\000\000\324\000\000\000\017\000\000\000d\000\000\000\001\000\000\000P\000\000\000\032\000\000\000\250\000\000\000Z\003\000\000K\003\000\000\002\000\000\000\006\000\000\000y\001\000\000{\000\000\000\004\000\000\000)\002\000\000\000\000\000\000\351\000\000\000\352\000\000\0000\000\000\0006\000\000\000\333\000\000\000\320\000\000\000I\001\000\000\332\001\000\000\317\001\000\000\001\000\000\000 \001\000\000\013\001\000\000{\000\000\000P\000\000\000\352\001\000\000r\000\000\000\000\000\000\000\370\000\000\000+\000\000\000\261\000\000\000M\001\000\000\002\000\000\000T\001\000\000\211\000\000\000\000\000\000\000&\000\000\000#\000\000\000\336\000\000\000#\000\000\000\220\002\000\000I\000\000\0003\000\000\000\000\000\000\000(\000\000\000z\000\000\000M\000\000\000$\000\000\000\250\000\000\000,\001\000\000\323\000\000\000\250\002\000\000\001\004\000\000\010\000\000\000J\000\000\000=\004\000\000\005\000\000\000&\000\000\000\001\000\000\000c\000\000\000\267\001\000\000\010\001\000\000\324\000\000\000\010\000\000\000\323\000\000\000\360\000\000\000\304\000\000\000\314\002\000\000-\001\000\000\001\000\000\000=\000\000\000\032\000\000\000\214\000\000\000I\000\000\000\324\000\000\000W\000\000\0000\001\000\000\005\000\000\000\214\000\000\000I\000\000\000\207\000\000\0002\000\000\000\220\002\000\000\000\000\000\000(\000\000\000z\000\000\000M\000\000\000$\000\000\000L\001\000\000G\000\000\000\320\000\000\000I\001\000\000\250\001\000\000\\\001\000\000_\000\000\000\374\000\000\000^\000\000\000\001\000\000\000\334\000\000\000\252\000\000\000\214\000\000\000I\000\000\000W\000\000\0000\001\000\000P\000\000\000\032\000\000\000g\001\000\000h\001\000\000\013\000\000\000&\000\000\000#\000\000\000\014\000\000\000;\002\000\000\314\000\000\000\010\000\000\000g\001\000\000\374\000\000\000W\000\000\0000\001\000\000\230\002\000\000E\002\000\000\234\003\000\000[\004\000\000\245\001\000\000h\002\000\0002\000\000\000\004\000\000\000n\000\000\000.\002\000\000\211\001\000\000?\002\000\000M\001\000\000\002\000\000\000\006\000\000\000Y\000\000\000S\000\000\000\000\000\000\000\351\000\000\000\352\000\000\0000\000\000\0006\000\000\000\304\000\000\000Q\000\000\000Q\000\000\000\005\000\000\000V\000\000\000\001\000\000\0002\001\000\000\014\001\000\000\000\000\000\000M\000\000\000$\000\000\000D\001\000\000E\001\000\000\022\000\000\000\323\000\000\000=\000\000\000&\000\000\000\231\002\000\000\001\000\000\000\362\000\000\000\311\000\000\000:\001\000\000\016\001\000\000\324\000\000\000\002\000\000\000$\000\000\000\033\000\000\000V\001\000\000\024\000\000\000\001\000\000\000S\000\000\0002\000\000\000\000\000\000\000\353\001\000\000E\000\000\000\007\002\000\000I\002\000\000\001\000\000\0005\000\000\000\003\000\000\000\351\000\000\000\352\000\000\0000\000\000\0006\000\000\000\001\000\000\000\200\001\000\000\035\002\000\0000\000\000\0006\000\000\000w\002\000\000A\000\000\000\373\000\000\000\375\000\000\000j\001\000\000\244\000\000\000\002\000\000\000\006\000\000\0006\000\000\000}\002\000\000\000\000\000\000\351\000\000\000\352\000\000\0000\000\000\0006\000\000\000\275\001\000\000\342\001\000\000\013\000\000\000\021\000\000\000\007\000\000\000\007\000\000\000\034\000\000\000\020\000\000\0000\000\000\0006\000\000\000e\001\000\000\000\000\000\000{\001\000\000\201\002\000\000\216\000\000\000=\000\000\000&\000\000\000\315\000\000\000\250\000\000\000\001\000\000\000\\\001\000\000_\000\000\000\010\000\000\000[\000\000\000(\000\000\000\275\000\000\000\264\000\000\000\010\000\000\000\014\003\000\000B\003\000\000]\000\000\0003\002\000\000\230\000\000\000r\000\000\000\002\000\000\000\276\000\000\000\231\000\000\000\033\000\000\000\"\002\000\000\013\000\000\000\277\001\000\000;\000\000\000X\000\000\000\007\000\000\000\325\000\000\000\001\000\000\000=\000\000\000\032\000\000\000\030\000\000\000\037\000\000\000\000\000\000\000C\002\000\000\036\000\000\000\325\000\000\0008\000\000\000=\000\000\000&\000\000\000/\000\000\000\207\001\000\0000\000\000\0006\000\000\000\000\000\000\000X\000\000\000\007\000\000\000\325\000\000\000\016\001\000\000c\000\000\000\304\002\000\0000\000\000\0006\000\000\000\000\000\000\000X\000\000\000\325\000\000\000\016\001\000\000\336\000\000\000#\000\000\0000\000\000\0006\000\000\000\000\000\000\000C\002\000\000\036\000\000\000\325\000\000\000\020\000\000\000\214\000\000\000I\000\000\000*\001\000\000=\003\000\000\002\000\000\000\311\000\000\000c\000\000\0009\001\000\000\030\000\000\000\037\000\000\000\005\000\000\000\021\000\000\000\007\000\000\000\007\000\000\000\235\001\000\000X\000\000\000\007\000\000\000\007\000\000\0008\000\000\000\312\002\000\000\177\000\000\000\000\000\000\000c\000\000\0009\001\000\000c\000\000\000\304\002\000\0000\000\000\0006\000\000\000\227\000\000\000\007\000\000\000\007\000\000\000\016\001\000\000\312\002\000\000\177\000\000\000\000\000\000\000w\000\000\000\363\000\000\000\307\000\000\000\336\000\000\000#\000\000\000 \001\000\000\013\001\000\000\303\000\000\000\007\000\000\000\235\001\000\000\036\000\000\000\021\000\000\000\007\000\000\000\016\001\000\000\312\002\000\000\177\000\000\000\002\000\000\000\006\000\000\0009\000\000\000\373\000\000\000\375\000\000\000\241\000\000\000\034\001\000\000\000\000\000\000N\001\000\000x\001\000\000\005\000\000\000\332\001\000\000\317\001\000\000v\000\000\000]\000\000\000 \001\000\000\013\001\000\000\001\000\000\000&\001\000\000\241\002\000\000\033\000\000\000\000\000\000\000m\001\000\000(\000\000\000k\000\000\000q\000\000\000@\002\000\000J\003\000\000\'\001\000\000D\001\000\000T\000\000\000\214\000\000\000I\000\000\000e\001\000\000{\000\000\000P\000\000\000@\002\000\000\377\001\000\000\251\000\000\000\217\002\000\0000\001\000\000Y\000\000\000\337\001\000\000\000\000\000\000@\002\000\000\212\002\000\000\001\000\000\0002\002\000\000<\004\000\000V\004\000\000>\004\000\000\027\000\000\000\034\000\000\000j\000\000\000\343\001\000\000J\000\000\000]\000\000\000>\003\000\000\251\000\000\000r\000\000\000\222\000\000\000\000\000\000\000$\000\000\000\017\001\000\000T\000\000\000\030\000\000\000\037\000\000\000 \001\000\000\013\001\000\000{\000\000\000P\000\000\000\034\000\000\000\274\001\000\000\237\000\000\000\001\000\000\000\205\003\000\0005\001\000\000A\000\000\000\350\003\000\000\354\003\000\000\000\000\000\000,\001\000\000\255\000\000\000T\000\000\000+\001\000\000\020\000\000\000\214\000\000\000I\000\000\000e\001\000\000\001\000\000\000\215\001\000\000z\002\000\000\224\000\000\000\317\001\000\000\000\000\000\000\356\000\000\000;\000\000\000\376\001\000\000\023\000\000\000\034\000\000\000\001\000\000\000\210\002\000\000.\001\000\000\000\000\000\000\370\000\000\000+\000\000\000\027\000\000\000\004\000\000\000m\002\000\000f\001\000\000\013\000\000\000\001\000\000\0000\000\000\0006\000\000\000$\001\000\000x\000\000\000\'\001\000\000D\001\000\000\241\000\000\000\244\000\000\000\000\000\000\0009\000\000\000\204\000\000\000\244\002\000\000\220\000\000\000\001\000\000\000\323\000\000\000\203\002\000\0000\000\000\000\007\001\000\000\324\000\000\000\010\000\000\000\323\000\000\000>\001\000\000\251\000\000\000\007\001\000\000\324\000\000\000*\000\000\000\r\000\000\000\002\000\000\000\006\000\000\000b\000\000\0004\000\000\000\021\001\000\000^\000\000\000\000\000\000\000R\000\000\000\023\000\000\000\005\000\000\000&\000\000\000#\000\000\000-\001\000\000\000\001\000\000\322\000\000\000\350\000\000\000`\000\000\0002\000\000\000\027\000\000\000\004\000\000\000\276\002\000\000h\003\000\000=\000\000\000\032\000\000\000\214\000\000\000I\000\000\000\000\000\000\000\216\000\000\000\351\000\000\000\352\000\000\0000\000\000\0006\000\000\000*\000\000\000\t\000\000\000\032\000\000\000p\000\000\000\255\000\000\000\221\000\000\000\001\000\000\000\000\000\000\000\013\000\000\000\313\001\000\000\320\001\000\000\"\004\000\000\010\000\000\000X\000\000\000\227\000\000\000\036\003\000\000=\000\000\000&\000\000\000z\001\000\000=\001\000\000W\000\000\000W\000\000\000\002\000\000\000\315\000\000\000\312\000\000\000\230\000\000\0003\000\000\000\000\000\000\000=\000\000\000\234\000\000\000\014\000\000\000\026\003\000\000Y\003\000\000`\003\000\000H\000\000\000<\001\000\000\276\001\000\000\001\000\000\000\003\000\000\0000\000\000\0006\000\000\000\355\000\000\000\032\000\000\000p\000\000\000\264\000\000\000\334\001\000\000\350\001\000\000\221\000\000\000\002\000\000\000\351\000\000\000\352\000\000\0000\000\000\0006\000\000\000\001\000\000\000*\000\000\000\r\000\000\000\027\001\000\000l\001\000\000U\003\000\000R\003\000\000\003\000\000\0003\002\000\000\005\000\000\000&\000\000\000#\000\000\000\014\000\000\000\001\000\000\000S\001\000\000(\000\000\000\264\000\000\000\334\001\000\000\000\000\000\000\236\000\000\000\350\001\000\000\221\000\000\000(\000\000\000z\000\000\000\001\000\000\000P\000\000\000\022\000\000\0000\000\000\0006\000\000\000\000\000\000\0009\000\000\000I\000\000\000o\000\000\000\275\000\000\000\034\001\000\000\033\000\000\000Y\000\000\000g\000\000\000*\000\000\000\r\000\000\000\034\000\000\000$\000\000\0000\000\000\0006\000\000\000w\002\000\000*\000\000\000\r\000\000\000\022\000\000\000\261\000\000\000\000\000\000\0009\002\000\000V\002\000\000\206\001\000\000\024\000\000\000?\001\000\000\256\002\000\000\010\000\000\000\251\000\000\000\217\002\000\000\010\000\000\000\320\000\000\000I\001\000\000W\000\000\000V\001\000\000\024\000\000\000\002\000\000\000\017\001\000\000\307\000\000\000\000\000\000\000\351\000\000\000\352\000\000\000\200\000\000\000[\002\000\000X\001\000\000*\001\000\000\"\001\000\000\206\000\000\000*\000\000\000\r\000\000\000\000\000\000\000&\001\000\000\026\000\000\000\n\000\000\000V\000\000\000h\000\000\000\263\000\000\000\000\000\000\000\233\000\000\000\022\000\000\000\313\001\000\000\032\000\000\000\001\000\000\000\'\004\000\0003\004\000\0007\000\000\000O\000\000\000\254\001\000\000\037\002\000\000\301\001\000\000\035\000\000\000\000\000\000\000\334\000\000\000\252\000\000\000J\004\000\000H\001\000\000h\000\000\000\263\000\000\000<\003\000\000\235\002\000\000\000\000\000\000\245\001\000\000\014\000\000\000\327\000\000\000+\000\000\000\026\000\000\000\301\001\000\000K\000\000\000\002\000\000\000\006\000\000\0006\000\000\000\027\000\000\000E\001\000\000\000\000\000\000\351\000\000\000\352\000\000\0000\000\000\0006\000\000\000x\001\000\000\003\000\000\000\377\000\000\000\004\003\000\000\362\002\000\000=\000\000\000&\000\000\000\363\000\000\000\031\001\000\000\260\003\000\000\206\000\000\000\000\000\000\0002\000\000\000\235\000\000\000f\001\000\000\022\001\000\000m\001\000\000\024\001\000\000\000\000\000\000\030\000\000\000\037\000\000\000R\001\000\000U\000\000\000\033\000\000\000\313\000\000\000\002\000\000\000\236\000\000\000\343\000\000\000\005\000\000\000R\000\000\000\023\000\000\000\200\001\000\000\000\000\000\000\351\000\000\000\352\000\000\0000\000\000\0006\000\000\000\235\000\000\000\357\001\000\000\240\000\000\000\337\000\000\000\007\000\000\000\007\000\000\000\325\000\000\000~\000\000\000\177\000\000\000S\001\000\000K\001\000\000\336\000\000\000#\000\000\000\000\000\000\000\377\000\000\000g\002\000\000l\004\000\000\230\000\000\000%\002\000\000=\000\000\000&\000\000\000\010\000\000\000{\002\000\000\274\002\000\000+\003\000\000\010\000\000\000\331\000\000\000`\004\000\000#\000\000\000\026\000\000\000\212\000\000\000\221\000\000\000&\000\000\000#\000\000\000\000\000\000\000\307\002\000\000l\001\000\000\362\000\000\000\023\000\000\000\337\000\000\000B\001\000\000Y\002\000\000\366\000\000\000g\002\000\000Z\000\000\0003\000\000\000\004\000\000\000K\001\000\000\336\000\000\000#\000\000\000\002\000\000\0009\000\000\000I\000\000\000o\000\000\000\030\000\000\000\037\000\000\000Y\001\000\000F\002\000\000\013\000\000\000\021\000\000\000\007\000\000\000\014\000\000\000\000\000\000\000\276\000\000\000\231\000\000\000\"\002\000\000\013\000\000\000&\000\000\000#\000\000\000\014\000\000\000(\000\000\000z\000\000\000\357\000\000\000\007\000\000\000\007\000\000\000\007\000\000\000\034\000\000\000\000\000\000\000=\000\000\000\032\000\000\000,\000\000\000(\000\000\000z\000\000\000\036\000\000\000\007\000\000\000\007\000\000\000\007\000\000\000\034\000\000\000\000\000\000\000\024\001\000\000\r\001\000\000v\000\000\000\031\001\000\000\016\000\000\000k\000\000\000/\000\000\000\207\001\000\000\231\002\000\000\002\000\000\000\006\000\000\0006\000\000\000\311\000\000\000J\000\000\000c\000\000\000\304\002\000\000\271\000\000\000B\001\000\000\036\000\000\000\021\000\000\000\311\000\000\000\374\000\000\000^\000\000\000\000\000\000\000\311\000\000\000\026\000\000\000\275\002\000\000\302\001\000\000L\001\000\000Y\001\000\000\372\003\000\0003\000\000\000\223\000\000\000\207\000\000\000A\000\000\000\364\001\000\000\252\001\000\000\340\000\000\000C\000\000\000Q\000\000\000Q\000\000\000C\000\000\000\342\000\000\000\001\000\000\000\275\002\000\000\302\001\000\000/\000\000\000\222\000\000\000\014\000\000\000a\001\000\000C\003\000\000\030\000\000\000\037\000\000\000\304\001\000\000\306\001\000\000f\000\000\000\317\002\000\000\260\000\000\000<\000\000\000\360\000\000\000\257\000\000\000}\000\000\000\375\001\000\000<\000\000\000q\001\000\000f\000\000\000\316\002\000\000f\000\000\000\260\000\000\000|\000\000\0001\001\000\000\215\000\000\000<\000\000\000N\002\000\000f\000\000\000\341\000\000\000\237\001\000\000|\000\000\000}\000\000\000\320\002\000\000\215\000\000\000<\000\000\000l\000\000\000f\000\000\000\342\000\000\000Q\000\000\000\000\000\000\0003\000\000\000\272\001\000\000\306\001\000\000\360\000\000\000q\001\000\000N\002\000\000\305\001\000\000\000\000\000\000\235\000\000\000U\000\000\000\021\000\000\000\007\000\000\000\036\000\000\000\271\000\000\000\023\000\000\000X\000\000\000B\001\000\000\200\001\000\000}\004\000\000\217\000\000\000#\000\000\000\n\000\000\000\n\003\000\000\337\002\000\000\002\000\000\000\374\000\000\000^\000\000\000\272\001\000\000\000\000\000\000\377\000\000\000U\000\000\000\014\000\000\000\370\000\000\000/\000\000\000\222\000\000\000\014\000\000\000\364\000\000\000&\003\000\000\216\001\000\000\n\000\000\000K\000\000\000\000\000\000\000o\001\000\000$\000\000\000\n\003\000\000 \000\000\000g\001\000\000\207\000\000\000\"\000\000\000(\000\000\000\000\000\000\000F\001\000\000\030\000\000\000\037\000\000\000`\000\000\0002\000\000\000\262\001\000\000\273\001\000\000\002\002\000\000\333\001\000\000\002\000\000\000\006\000\000\000\033\000\000\000m\004\000\000\311\000\000\000\\\001\000\000\374\000\000\000^\000\000\000\272\001\000\000\000\000\000\000F\001\000\000\030\000\000\000\037\000\000\000\001\000\000\000\337\002\000\000p\000\000\000\277\001\000\000;\000\000\000\035\001\000\000\362\001\000\000\031\000\000\000X\000\000\000\036\000\000\000\357\000\000\000\262\000\000\000\311\000\000\000~\000\000\000\304\001\000\000\346\001\000\000\221\000\000\000\014\000\000\000c\001\000\000_\001\000\000\036\000\000\000\337\000\000\000\372\001\000\000\337\000\000\000\262\000\000\000~\000\000\000\305\001\000\000\002\000\000\000\221\001\000\000\236\000\000\000\214\002\000\000\030\000\000\000u\002\000\000\032\000\000\000A\004\000\000\000\000\000\000D\000\000\0006\000\000\000\000\001\000\000l\001\000\000\000\000\000\000F\001\000\000\030\000\000\000\037\000\000\000\021\000\000\000\007\000\000\000\036\000\000\000\303\000\000\000\267\002\000\000\023\000\000\000\001\000\000\000\024\001\000\000\032\000\000\000\r\001\000\000\217\000\000\000\022\000\000\000\021\000\000\000\021\000\000\000\262\000\000\000\311\000\000\000~\000\000\000\000\000\000\000~\003\000\000\002\002\000\000\333\001\000\000\036\000\000\000\036\000\000\000\271\000\000\000\262\000\000\000\311\000\000\000~\000\000\000\304\001\000\000\346\001\000\000\221\000\000\000\014\000\000\000c\001\000\000_\001\000\000\271\000\000\000\262\000\000\000~\000\000\000\305\001\000\000\000\000\000\000\002\002\000\000\333\001\000\000\035\001\000\000K\000\000\000U\000\000\000\021\000\000\000\007\000\000\000\036\000\000\000\357\000\000\000\267\002\000\000\023\000\000\000\001\000\000\000\021\000\000\000X\000\000\000\262\000\000\000\311\000\000\000~\000\000\000\002\000\000\0005\003\000\0003\000\000\000\000\000\000\000\275\002\000\000\302\001\000\000C\001\000\000\005\000\000\000\022\000\000\000/\000\000\000\222\000\000\000\014\000\000\000a\001\000\000C\003\000\000\030\000\000\000\037\000\000\000\224\000\000\000\205\000\000\000\364\001\000\000\252\001\000\000#\002\000\000\211\002\000\000A\000\000\000#\000\000\000\032\001\000\000\211\002\000\000z\001\000\000\002\000\000\000\006\000\000\000\271\000\000\000B\001\000\000\036\000\000\000\357\000\000\000\311\000\000\000\000\000\000\000]\001\000\000\327\001\000\000L\002\000\000G\000\000\000w\000\000\000M\002\000\000/\000\000\000\222\000\000\000\014\000\000\000\013\000\000\000\365\001\000\000\030\000\000\000\037\000\000\000Q\001\000\000\252\000\000\000\214\000\000\000I\000\000\000\005\000\000\000i\000\000\000s\002\000\000\275\000\000\000\222\002\000\000{\000\000\000w\000\000\0008\000\000\000K\000\000\000c\000\000\0006\001\000\000\223\000\000\000x\000\000\000\330\001\000\000\027\001\000\000\002\000\000\000\006\000\000\000\021\000\000\000\007\000\000\000\036\000\000\000\021\000\000\000\023\000\000\000X\000\000\000B\001\000\000\000\000\000\000]\001\000\000\327\001\000\000!\000\000\000/\000\000\000\005\000\000\000\222\002\000\000{\000\000\000w\000\000\0008\000\000\000K\000\000\000c\000\000\0006\001\000\000&\000\000\000#\000\000\000\027\001\000\000\022\001\000\000]\001\000\000\327\001\000\000L\002\000\000G\000\000\000w\000\000\000M\002\000\000/\000\000\000\222\000\000\000\014\000\000\000\013\000\000\000\365\001\000\000\030\000\000\000\037\000\000\000\000\000\000\000\331\001\000\000&\000\000\000#\000\000\000\227\000\000\000\236\001\000\000\337\000\000\000\007\000\000\000\325\000\000\000\317\000\000\000~\000\000\000\000\000\000\000\003\000\000\000]\001\000\000\327\001\000\000!\000\000\000/\000\000\000N\001\000\000\337\001\000\000\005\000\000\000\313\000\000\000\307\000\000\000\027\001\000\000\022\001\000\000/\000\000\000\222\000\000\000\014\000\000\000\t\000\000\000*\000\000\000x\000\000\000\344\000\000\000\000\000\000\000\261\000\000\000)\000\000\000\t\000\000\000*\000\000\000x\000\000\000\032\000\000\000(\000\000\000\341\002\000\000j\004\000\000/\000\000\000\222\000\000\000\014\000\000\000\002\000\000\000\021\000\000\000\007\000\000\000\036\000\000\000X\000\000\000\023\000\000\000\227\000\000\000B\001\000\000x\000\000\000\344\000\000\000\330\001\000\000+\000\000\000\354\001\000\000\362\000\000\000\000\000\000\000\023\000\000\000\t\000\000\000*\000\000\000\024\000\000\000\327\000\000\000\235\000\000\000J\000\000\000\362\001\000\000\031\000\000\000\036\000\000\000\021\000\000\000\007\000\000\000\007\000\000\000\007\000\000\000\231\000\000\000\000\000\000\000\021\000\000\000\007\000\000\000\036\000\000\000\227\000\000\000\023\000\000\000S\000\000\0002\000\000\000\364\001\000\000\252\001\000\000\r\001\000\000\217\000\000\000\227\000\000\000\372\001\000\000\007\000\000\000\227\000\000\000\262\000\000\000~\000\000\000\000\000\000\000\021\000\000\000\007\000\000\000\036\000\000\000\271\000\000\000\023\000\000\000\t\000\000\000*\000\000\000\302\000\000\000\216\000\000\000R\000\000\000\023\000\000\000\232\000\000\000\312\000\000\0009\001\000\000/\001\000\000\271\000\000\000\007\000\000\000\036\001\000\000\002\000\000\000\006\000\000\000\233\001\000\000\020\001\000\000/\000\000\000\222\000\000\000\014\000\000\000\275\000\000\000\264\000\000\000\n\000\000\000\371\003\000\000\202\001\000\000\035\000\000\000\000\000\000\000]\001\000\000\327\001\000\000L\002\000\000G\000\000\000w\000\000\000M\002\000\000/\000\000\000\222\000\000\000\014\000\000\000\013\000\000\000\365\001\000\000\030\000\000\000\037\000\000\000\332\003\000\0007\000\000\000\202\001\000\000\035\000\000\000\t\000\000\000*\000\000\000\002\001\000\000\243\000\000\000\000\000\000\000Q\001\000\000\252\000\000\000\214\000\000\000I\000\000\0009\001\000\000$\001\000\000&\000\000\000#\000\000\000\331\001\000\000\035\001\000\000\357\000\000\000\303\000\000\000\007\000\000\000\007\000\000\000\325\000\000\000\317\000\000\000~\000\000\000\002\000\000\000l\001\000\000\014\002\000\000\021\000\000\000\007\000\000\000\036\000\000\000\337\000\000\000\023\000\000\000\357\000\000\000B\001\000\000\200\001\000\0007\004\000\000x\000\000\000\000\000\000\000Q\001\000\000\252\000\000\000\214\000\000\000I\000\000\000&\000\000\000*\000\000\000E\000\000\000i\000\000\000s\002\000\000x\000\000\000\344\000\000\000\001\000\000\000/\000\000\000\222\000\000\000\014\000\000\000\023\000\000\000\t\000\000\000*\000\000\000\024\000\000\000\327\000\000\000\366\000\000\000\362\001\000\000\031\000\000\000\036\000\000\000\337\000\000\000\007\000\000\000\007\000\000\000\007\000\000\000\231\000\000\000\000\000\000\000\366\000\000\000+\000\000\000\022\000\000\000v\000\000\000w\000\000\000H\000\000\000\035\000\000\000\001\000\000\000x\000\000\000\032\000\000\000/\000\000\000\222\000\000\000\014\000\000\000\t\000\000\000*\000\000\000&\001\000\000a\000\000\000\002\000\000\000\006\000\000\000l\000\000\000\257\000\000\000\342\000\000\000\342\000\000\000|\000\000\000q\001\000\000f\000\000\000P\000\000\000\211\004\000\000>\000\000\000\356\000\000\000;\000\000\000\363\003\000\000w\001\000\000:\001\000\000A\000\000\000\306\002\000\000\362\001\000\000\016\000\000\000>\002\000\0005\001\000\000j\002\000\000\025\002\000\000\254\000\000\000\027\002\000\000\000\000\000\000\236\000\000\000\333\000\000\000\227\001\000\000\376\000\000\000\300\000\000\000\031\000\000\000^\003\000\000}\001\000\0008\000\000\000E\002\000\000\017\002\000\000\002\000\000\000l\000\000\000\257\000\000\000\342\000\000\000\342\000\000\000|\000\000\000q\001\000\000f\000\000\000H\000\000\000\034\000\000\000M\000\000\000$\000\000\000\223\001\000\000A\002\000\000\036\000\000\000\007\000\000\000\007\000\000\000\030\000\000\000$\002\000\000\001\000\000\000\376\000\000\000\r\000\000\000\000\000\000\000\374\001\000\000\373\001\000\000\340\000\000\000l\001\000\000\014\002\000\000(\000\000\000N\000\000\000\016\000\000\000\321\000\000\000\300\000\000\000q\002\000\000\007\001\000\000A\001\000\000\014\000\000\000/\000\000\000o\001\000\000$\000\000\000m\001\000\000\300\000\000\000\001\000\000\000\367\001\000\000\r\000\000\000W\000\000\000\002\000\000\000\374\001\000\000\373\001\000\000\340\000\000\000\366\000\000\000X\001\000\000\376\000\000\000\225\000\000\000\030\000\000\000\037\000\000\000W\000\000\000\224\000\000\000\205\000\000\000\376\000\000\000\225\000\000\000/\000\000\000\222\000\000\000\014\000\000\000l\000\000\000\257\000\000\000\342\000\000\000\342\000\000\000|\000\000\000q\001\000\000f\000\000\000\002\000\000\000N\001\000\000x\001\000\000\000\000\000\000\374\001\000\000\373\001\000\000\340\000\000\000\366\000\000\000\212\000\000\000\221\000\000\000J\000\000\000\024\001\000\000\267\003\000\000\037\000\000\000\307\000\000\000\006\001\000\000\r\000\000\000e\000\000\000\323\000\000\000\302\001\000\000\230\000\000\000i\001\000\000\324\000\000\000\001\000\000\000q\001\000\000|\000\000\000\237\001\000\000C\000\000\000<\000\000\000\256\000\000\000}\000\000\000<\000\000\000p\001\000\000T\002\000\000Q\000\000\000\342\000\000\000C\000\000\000\215\000\000\000\215\000\000\000\030\000\000\000\037\000\000\000\005\000\000\000a\002\000\000\030\000\000\000\007\004\000\000W\000\000\000a\000\000\000\223\000\000\000;\001\000\000$\003\000\000\226\001\000\000\000\000\000\000q\000\000\000E\000\000\000\270\000\000\000\366\000\000\000g\002\000\000Z\000\000\000\005\000\000\000\365\001\000\000h\000\000\0006\001\000\000\350\000\000\000\363\000\000\000\001\000\000\000\226\001\000\000\246\000\000\000\n\001\000\000\266\000\000\000p\000\000\000\002\000\000\000\006\000\000\000\307\000\000\000\\\001\000\000\272\001\000\000\000\000\000\000\311\000\000\000\026\000\000\000\332\000\000\000\363\001\000\000P\000\000\000\032\000\000\000\001\000\000\000\014\000\000\000=\001\000\000\n\000\000\000\203\000\000\000\303\001\000\000M\001\000\000C\001\000\000\210\000\000\000\240\000\000\000\311\000\000\000\237\002\000\000U\002\000\000\302\003\000\000\000\000\000\000\364\000\000\000(\000\000\000/\000\000\000\222\000\000\000\014\000\000\000^\001\000\000+\000\000\000?\000\000\000\332\000\000\000\363\001\000\000L\001\000\000\370\003\000\000a\000\000\000\031\000\000\000^\003\000\000}\001\000\0008\000\000\000\001\000\000\000\323\000\000\000H\000\000\000E\000\000\000\004\000\000\000\030\000\000\000\301\000\000\000\324\000\000\000\321\000\000\000\300\000\000\000\000\000\000\000M\000\000\000\177\003\000\000Q\003\000\000\332\000\000\000\363\001\000\000\014\000\000\000i\002\000\000M\003\000\000\345\003\000\000\002\000\000\000\n\000\000\000;\000\000\000\000\000\000\000\022\000\000\000\027\000\000\000\366\000\000\000\332\000\000\000\363\001\000\000/\000\000\000\222\000\000\000\014\000\000\000?\001\000\000X\001\000\000S\000\000\000(\000\000\000\206\000\000\000\000\000\000\000\270\000\000\0007\000\000\000^\001\000\000\236\003\000\000\244\000\000\000\377\002\000\000\000\000\000\000\374\001\000\000\373\001\000\000\340\000\000\000\366\000\000\000\005\000\000\000\362\000\000\000E\000\000\000\216\000\000\000\311\000\000\000\026\000\000\000\021\003\000\000\373\002\000\000;\001\000\000\223\000\000\000\025\000\000\000U\004\000\000\002\000\000\000\006\000\000\000(\002\000\0006\000\000\000\313\000\000\000\177\001\000\000L\001\000\000Y\001\000\000\010\000\000\000\216\002\000\000!\003\000\0006\001\000\000\021\003\000\000\373\002\000\000\010\000\000\000i\003\000\000\027\004\000\000L\001\000\000Y\001\000\000=\003\000\000D\004\000\000\001\000\000\000r\001\000\000\241\000\000\000\216\003\000\000W\004\000\000\000\000\000\000\313\000\000\000\177\001\000\000\366\000\000\000&\000\000\000#\000\000\000\036\000\000\000\007\000\000\000\007\000\000\000\262\000\000\000~\000\000\000$\000\000\000\033\000\000\000\000\000\000\000\330\001\000\000\027\001\000\000\200\004\000\000\301\003\000\000$\000\000\000\307\000\000\000N\001\000\000\020\000\000\0006\001\000\000\350\000\000\000\331\001\000\000\031\001\000\000A\000\000\000\341\002\000\000\035\000\000\000\266\001\000\000\260\001\000\000V\001\000\000\024\000\000\000\002\004\000\000Z\001\000\000\000\000\000\000>\001\000\000n\001\000\000v\000\000\000w\000\000\000\206\001\000\000\024\000\000\000\263\000\000\000n\001\000\000A\000\000\000x\000\000\000\032\000\000\000u\000\000\000\212\000\000\000]\000\000\000\322\000\000\000\350\000\000\000\001\000\000\000*\001\000\000\000\004\000\000\214\000\000\000I\000\000\000\002\000\000\000\006\000\000\000\313\000\000\000\177\001\000\000l\001\000\000\014\002\000\000\005\000\000\000\313\002\000\000\227\000\000\000\007\000\000\000\216\002\000\000!\003\000\0005\004\000\000=\000\000\000H\001\000\000\315\003\000\000\370\000\000\000+\000\000\000u\000\000\000\212\000\000\000]\000\000\000x\000\000\000\344\000\000\0001\002\000\000E\003\000\000\t\000\000\000*\000\000\000B\000\000\000\000\000\000\000\026\001\000\0008\000\000\000!\000\000\000\001\000\000\000\243\002\000\000\014\000\000\000h\000\000\000\263\000\000\000\266\000\000\000p\000\000\000H\001\000\000{\000\000\000\033\000\000\000\313\000\000\000\002\000\000\000\313\001\000\000\032\000\000\000A\000\000\000x\000\000\000\014\000\000\000\n\000\000\000y\001\000\000\003\000\000\000*\000\000\000\r\000\000\000\t\000\000\000*\000\000\000\001\000\000\000\322\001\000\000\004\000\000\000\261\000\000\000\253\001\000\000,\000\000\000\000\000\000\000\365\000\000\000\026\000\000\000\'\001\000\000\005\000\000\000\377\003\000\000\220\001\000\000\001\000\000\000 \000\000\000\"\000\000\000,\000\000\000\000\000\000\000\232\000\000\000d\000\000\000:\000\000\000\003\000\000\000*\000\000\000\r\000\000\000\001\000\000\000\027\001\000\000l\001\000\000,\000\000\000A\000\000\000\t\000\000\000*\000\000\000,\000\000\000\002\000\000\000 \000\000\000\"\000\000\000,\000\000\000\005\000\000\000\344\001\000\000Z\000\000\000?\004\000\000\220\001\000\000\033\000\000\000.\004\000\000\375\002\000\000\313\000\000\000\177\001\000\000h\000\000\000\263\000\000\000\276\000\000\000\231\000\000\000\000\000\000\000\224\000\000\000`\000\000\000k\000\000\000\274\000\000\000\001\000\000\000h\000\000\000\263\000\000\000)\000\000\000O\000\000\000\000\000\000\000\017\000\000\000n\000\000\000 \001\000\000\013\001\000\000\213\000\000\0003\000\000\000\362\001\000\000\031\000\000\000x\000\000\000\344\000\000\000\t\000\000\000+\000\000\000\224\001\000\000\220\000\000\000\002\000\000\000d\002\000\000\004\000\000\000:\001\000\000\000\000\000\000x\000\000\000\344\000\000\000\001\000\000\000\206\001\000\000\024\000\000\000\263\000\000\000n\001\000\000-\001\000\000\000\001\000\000k\000\000\000Z\000\000\000\353\003\000\000*\000\000\000\000\000\000\000\236\000\000\000\366\000\000\000 \001\000\000\013\001\000\000t\001\000\000\363\001\000\000\031\000\000\000\250\001\000\000\020\000\000\000\t\000\000\000*\000\000\000B\000\000\000\002\000\000\000J\000\000\000;\000\000\000\206\001\000\000\024\000\000\000\350\002\000\000\321\000\000\000\010\000\000\000\004\004\000\000\n\001\000\000\223\001\000\000\321\000\000\000\010\000\000\000\243\000\000\000Z\001\000\000\223\001\000\000\321\000\000\000\010\000\000\000(\000\000\000z\000\000\000h\000\000\000\263\000\000\000\010\000\000\000\206\001\000\000\024\000\000\000\356\003\000\000\220\000\000\000\010\000\000\000\206\001\000\000\024\000\000\000\006\004\000\000$\003\000\000\010\000\000\000h\000\000\000\263\000\000\000s\001\000\000u\000\000\000W\000\000\000\271\000\000\000\020\000\000\000x\000\000\0003\002\000\000\000\000\000\000\036\000\000\000X\000\000\000\020\000\000\000\001\001\000\000\314\000\000\000\000\000\000\000\224\001\000\000\220\000\000\000\001\000\000\000v\000\000\000\316\000\000\000\202\000\000\000;\002\000\000a\000\000\000h\002\000\0002\000\000\000\005\000\000\0005\003\000\000o\000\000\000\002\000\000\000\005\001\000\000\251\000\000\000v\004\000\000\363\000\000\000\004\000\000\000\231\000\000\000\243\002\000\000\014\000\000\000\310\001\000\000\036\002\000\000h\000\000\000\263\000\000\000\001\000\000\000\346\002\000\0005\002\000\000{\002\000\000@\003\000\000\243\000\000\000\007\001\000\000%\000\000\000+\000\000\000\007\001\000\000\002\000\000\000\006\000\000\000\021\000\000\000\007\000\000\000\036\000\000\000\227\000\000\000\023\000\000\000\000\000\000\000\313\000\000\000\177\001\000\000v\000\000\000\341\001\000\000\024\001\000\000\032\000\000\000\035\001\000\000S\000\000\0002\000\000\000\021\000\000\000\007\000\000\000\036\000\000\000\227\000\000\000\262\000\000\000~\000\000\000\000\000\000\000S\000\000\0002\000\000\000\364\000\000\000&\003\000\000\021\000\000\000\007\000\000\000X\000\000\000\262\000\000\000~\000\000\000\000\000\000\000\232\000\000\000>\000\000\000B\000\000\000\033\000\000\000s\001\000\000b\001\000\000\035\001\000\000S\000\000\0002\000\000\000\021\000\000\000\271\000\000\000\021\000\000\000\271\000\000\000\262\000\000\000~\000\000\000\002\000\000\000(\002\000\0006\000\000\000\221\002\000\0000\004\000\000w\000\000\000H\002\000\0000\000\000\0006\000\000\000\000\000\000\000\021\000\000\000\007\000\000\000\036\000\000\000\227\000\000\000\023\000\000\000\313\000\000\000\177\001\000\000\035\000\000\000\007\001\000\0008\000\000\000(\000\000\000!\000\000\000\222\000\000\000\r\000\000\000e\000\000\000\305\002\000\000\252\001\000\000\302\000\000\000\353\002\000\000v\000\000\000\341\001\000\000\275\000\000\000\264\000\000\000\001\000\000\000\036\000\000\000\007\000\000\000\372\001\000\000X\000\000\000\036\001\000\000\000\000\000\000\276\002\000\000\273\001\000\000\337\000\000\000\023\000\000\000Q\004\000\000\212\000\000\000v\000\000\000\341\001\000\000\354\000\000\000\004\000\000\000\002\000\000\000\006\000\000\000\233\001\000\000\020\001\000\000\344\000\000\000\025\000\000\000\005\000\000\000\014\000\000\0004\000\000\000\001\000\000\000\020\004\000\000\231\001\000\000\010\000\000\000\200\002\000\000\276\003\000\000\010\000\000\000\344\001\000\000Z\000\000\000\027\001\000\000\325\001\000\000G\000\000\000W\001\000\000\216\000\000\000\027\000\000\000\267\000\000\000\016\000\000\000\267\000\000\000\034\000\000\000\001\000\000\000\243\000\000\000Z\001\000\000\000\000\000\000\205\000\000\000[\000\000\000\033\001\000\000\210\000\000\000\240\000\000\000\267\000\000\000\016\000\000\000\267\000\000\000/\001\000\000\002\000\000\000\315\000\000\000[\000\000\000a\000\000\000\000\000\000\000\002\001\000\0006\004\000\000\263\000\000\000\237\000\000\000:\000\000\000\210\000\000\000\240\000\000\000\267\000\000\000\016\000\000\000\267\000\000\000\030\002\000\000\215\002\000\000\002\000\000\000\232\000\000\000>\000\000\000\000\000\000\000\355\001\000\000-\004\000\000\010\000\000\000 \000\000\000\254\002\000\000H\004\000\000\016\004\000\000\001\000\000\000\027\003\000\000\212\002\000\000\010\000\000\000\013\002\000\000\217\001\000\0006\003\000\000*\000\000\000\010\000\000\000\n\000\000\000\273\003\000\000\014\000\000\000y\000\000\000\001\000\000\000x\000\000\000\272\000\000\000\254\000\000\000\027\002\000\000W\000\000\000~\000\000\000\246\002\000\000:\000\000\000M\000\000\000\024\000\000\000\213\000\000\000\355\003\000\000\215\002\000\000\031\000\000\000\t\000\000\000*\000\000\000\033\001\000\000G\000\000\000\002\000\000\000\006\000\000\000T\000\000\000\017\001\000\000\000\000\000\000$\001\000\000\203\001\000\000\035\000\000\000=\000\000\000\032\000\000\000\030\000\000\000\037\000\000\000\304\000\000\000\215\000\000\000\215\000\000\000C\000\000\000}\000\000\000\260\000\000\000<\000\000\000l\000\000\000f\000\000\000\307\001\000\000Q\000\000\000\341\000\000\000|\000\000\000\257\000\000\000}\000\000\0001\001\000\000C\000\000\000\224\000\000\000\205\000\000\000\027\000\000\000\004\000\000\000j\000\000\000\266\000\000\000p\000\000\000\234\001\000\000\255\001\000\000z\001\000\000\t\000\000\000*\000\000\000\025\000\000\000\032\002\000\000\266\001\000\000\010\000\000\0004\002\000\000a\001\000\000N\000\000\0004\000\000\000\001\000\000\000\205\000\000\000[\000\000\000\033\001\000\000\000\000\000\000\271\001\000\000\326\000\000\000*\000\000\000\r\000\000\000\001\000\000\000\t\000\000\000*\000\000\000\225\000\000\000\316\000\000\000\002\000\000\000\006\000\000\000\362\000\000\000\177\000\000\000\000\000\000\000\017\000\000\0008\000\000\000\030\000\000\000\037\000\000\000\262\003\000\000u\002\000\000\235\000\000\000^\001\000\000+\000\000\000X\000\000\000\036\000\000\000\357\000\000\000\007\000\000\000\325\000\000\000\317\000\000\000~\000\000\000\001\000\000\000\360\000\000\000K\001\000\000\336\000\000\000#\000\000\000\000\000\000\000\377\000\000\000\313\002\000\000\342\000\000\000C\000\000\000C\000\000\000}\000\000\000\215\000\000\000Q\000\000\000\342\000\000\000|\000\000\000}\000\000\000\320\002\000\000<\000\000\000\304\000\000\000\215\000\000\000\215\000\000\000f\000\000\0001\001\000\000|\000\000\000\257\000\000\000\260\000\000\000C\000\000\000\215\000\000\000\322\000\000\000&\000\000\000\000\000\000\000R\002\000\000f\000\000\000\341\000\000\000|\000\000\000\260\000\000\000|\000\000\000f\000\000\000}\000\000\000<\000\000\000l\000\000\000\257\000\000\000Q\000\000\000|\000\000\000\260\000\000\000\257\000\000\000\341\000\000\000\010\000\000\000\256\000\000\000Q\000\000\000C\000\000\000}\000\000\000<\000\000\000\314\002\000\000C\000\000\000T\002\000\000\260\000\000\000<\000\000\000p\001\000\000}\000\000\000\260\000\000\000C\000\000\000\342\000\000\000Q\000\000\000\342\000\000\000|\000\000\000\215\000\000\000C\000\000\000<\000\000\000\304\000\000\000Q\000\000\000Q\000\000\000\341\000\000\000|\000\000\0001\001\000\000\257\000\000\000\260\000\000\000|\000\000\000f\000\000\000}\000\000\000<\000\000\000d\003\000\000S\002\000\000}\000\000\000\237\001\000\000\010\000\000\000$\001\000\000\203\001\000\000\035\000\000\000\025\000\000\000\032\000\000\000\223\000\000\000\207\000\000\000\302\001\000\000P\000\000\000\010\000\000\000$\001\000\000\203\001\000\000\035\000\000\000x\000\000\000\032\000\000\000g\001\000\000h\001\000\000\211\002\000\000z\001\000\000l\001\000\000\014\002\000\000w\000\000\0008\000\000\000g\001\000\000h\001\000\000\256\003\000\000i\002\000\000@\000\000\000\010\000\000\000$\001\000\000\203\001\000\000\035\000\000\0003\003\000\0008\000\000\000\302\001\000\000P\000\000\000$\000\000\000\345\000\000\000\004\000\000\000n\000\000\000\243\002\000\000\014\000\000\000&\000\000\000#\000\000\000,\000\000\000W\001\000\000\216\000\000\000\355\000\000\000&\000\000\000\002\000\000\000\340\003\000\000\354\001\000\000I\000\000\000o\000\000\000\000\000\000\000F\001\000\000\030\000\000\000\037\000\000\000\342\002\000\000\336\000\000\000#\000\000\000\227\000\000\000\007\000\000\000\007\000\000\000\007\000\000\000\325\000\000\000\317\000\000\000~\000\000\000\002\000\000\000\006\000\000\000\304\000\000\000\215\000\000\000\215\000\000\000C\000\000\000}\000\000\000\260\000\000\000<\000\000\000l\000\000\000f\000\000\000\307\001\000\000Q\000\000\000\341\000\000\000|\000\000\000\257\000\000\000}\000\000\0001\001\000\000C\000\000\000\021\000\000\000\007\000\000\000\007\000\000\000\303\000\000\000\023\000\000\000\005\000\000\000\026\004\000\000[\001\000\000\330\000\000\000+\000\000\000\022\001\000\000\304\001\000\000?\000\000\000\021\000\000\000\007\000\000\000\036\000\000\000\007\000\000\000\023\000\000\000\372\000\000\000\223\000\000\000\234\000\000\000\213\000\000\000\307\000\000\000*\004\000\000\250\000\000\000,\001\000\000\305\001\000\000\000\000\000\000\261\000\000\000)\000\000\000\032\000\000\000p\000\000\000\003\000\000\000\255\001\000\000z\001\000\000\313\001\000\000\032\000\000\000\r\001\000\000L\001\000\000\001\003\000\000)\000\000\0000\000\000\0006\000\000\000\000\000\000\000$\000\000\000\326\000\000\000\262\001\000\000Y\000\000\000v\000\000\000\341\001\000\000\205\000\000\000[\000\000\000\033\001\000\0009\004\000\000\221\000\000\000\\\000\000\000a\000\000\000A\000\000\000w\000\000\000H\002\000\000\002\001\000\000h\000\000\000\002\000\000\000J\000\000\000;\000\000\000\005\001\000\000\023\000\000\000\001\000\000\000\207\000\000\000;\001\000\000\000\000\000\000F\001\000\000\030\000\000\000\037\000\000\0002\000\000\000\"\002\000\000\013\000\000\000\021\000\000\000\021\000\000\000\303\000\000\000\320\001\000\000i\002\000\000x\000\000\0000\001\000\000\304\000\000\000\215\000\000\000\215\000\000\000C\000\000\000}\000\000\000\260\000\000\000<\000\000\000l\000\000\000f\000\000\000\307\001\000\000Q\000\000\000\341\000\000\000|\000\000\000\257\000\000\000}\000\000\0001\001\000\000C\000\000\000\241\000\000\000\034\001\000\000\222\001\000\0001\002\000\000\000\000\000\000I\000\000\000o\000\000\000\216\000\000\000*\001\000\000\"\001\000\000\025\003\000\000\177\001\000\000\303\000\000\000\007\000\000\000\007\000\000\000\203\002\000\0000\000\000\000L\000\000\000\275\001\000\000\342\001\000\000\001\000\000\000\357\000\000\000\007\000\000\000\036\001\000\000\001\000\000\000\030\000\000\000\037\000\000\0005\000\000\000\013\000\000\000\221\000\000\000\272\000\000\000\000\000\000\000\r\001\000\000L\001\000\000\016\000\000\000k\000\000\000v\000\000\000\341\001\000\000X\000\000\000\007\000\000\000\034\000\000\000\325\000\000\0008\000\000\000\030\000\000\000\037\000\000\000\001\000\000\0000\000\000\0006\000\000\000\002\000\000\000\006\000\000\000T\000\000\000U\000\000\000\035\000\000\000\034\000\000\0000\000\000\000\273\002\000\000w\000\000\000\030\000\000\000\037\000\000\000\016\000\000\0001\000\000\000\000\000\000\000\271\001\000\000\326\000\000\000\205\000\000\000[\000\000\000\033\001\000\000\250\001\000\000\254\000\000\000\001\001\000\000\221\000\000\000\240\001\000\000\244\000\000\000\377\002\000\000\002\001\000\000E\003\000\000\003\000\000\000\004\000\000\000\035\000\000\0002\003\000\000\314\000\000\000\002\000\000\0009\000\000\000\304\000\000\000\215\000\000\000\215\000\000\000C\000\000\000}\000\000\000\260\000\000\000<\000\000\000l\000\000\000f\000\000\000\307\001\000\000Q\000\000\000\341\000\000\000|\000\000\000\257\000\000\000}\000\000\0001\001\000\000C\000\000\000\001\000\000\000\333\000\000\000\250\000\000\000\024\000\000\000\026\001\000\000\205\000\000\000[\000\000\000\033\001\000\000\250\001\000\000\254\000\000\000\001\001\000\000\001\000\000\000W\001\000\000\216\000\000\000,\000\000\000r\004\000\000y\003\000\000\013\002\000\000\217\001\000\0006\003\000\000*\000\000\000\000\000\000\000$\000\000\000\345\000\000\000q\004\000\000\261\003\000\000\221\002\000\000\022\004\000\000\325\002\000\000<\000\000\000q\001\000\000p\001\000\000\304\000\000\000l\000\000\000N\002\000\000\326\002\000\000\244\000\000\000\267\001\000\000\033\000\000\000\013\000\000\000\250\000\000\000\206\000\000\000(\001\000\000\263\000\000\000\r\000\000\000\001\000\000\000\002\001\000\000h\000\000\000\000\000\000\000A\000\000\000$\001\000\000s\002\000\000\325\002\000\000\036\000\000\000\236\001\000\000\337\000\000\000\227\000\000\000\023\000\000\000]\001\000\000v\000\000\000\207\004\000\000(\000\000\000d\001\000\000A\000\000\000\013\000\000\000\r\004\000\000\342\003\000\000\244\000\000\000\244\000\000\000\326\002\000\000\001\000\000\000\315\000\000\000\250\000\000\000\002\001\000\000h\000\000\000\002\000\000\000\006\000\000\000I\000\000\000o\000\000\000\000\000\000\000\004\000\000\000n\000\000\000\267\002\000\000p\002\000\000\303\000\000\000\007\000\000\000\007\000\000\000<\001\000\000\030\000\000\000\037\000\000\000\334\002\000\000[\002\000\000X\001\000\000U\000\000\000S\001\000\000(\000\000\000p\001\000\000T\002\000\0001\001\000\000C\000\000\000\341\000\000\000\032\002\000\000\266\001\000\000A\000\000\000\355\000\000\000I\001\000\000g\000\000\0004\000\000\000\001\000\000\000\205\000\000\000[\000\000\000\025\000\000\000\000\000\000\000q\000\000\0009\000\000\000\017\000\000\000\236\000\000\000\204\000\000\000H\000\000\000\013\000\000\000\265\000\000\000\001\000\000\000\241\000\000\000\244\000\000\000\002\000\000\000\304\000\000\000\215\000\000\000\215\000\000\000C\000\000\000}\000\000\000\260\000\000\000<\000\000\000l\000\000\000f\000\000\000\307\001\000\000Q\000\000\000\341\000\000\000|\000\000\000\257\000\000\000}\000\000\0001\001\000\000C\000\000\000\001\000\000\000\266\000\000\000p\000\000\000\371\000\000\000\024\000\000\000\022\000\000\000N\000\000\0004\000\000\000\001\000\000\000\032\002\000\000\266\001\000\000;\000\000\000\316\000\000\000\224\000\000\000\265\000\000\000\002\000\000\000\006\000\000\000\211\000\000\000\242\000\000\000?\000\000\0002\000\000\000\005\000\000\000\257\001\000\000o\000\000\000?\001\000\0007\001\000\000\023\000\000\000\000\000\000\000\273\000\000\000@\000\000\000\207\000\000\0002\000\000\000\000\000\000\000\005\000\000\000 \000\000\000\"\000\000\000\322\000\000\000\350\000\000\000\261\000\000\000\225\000\000\000\001\000\000\000u\000\000\000\212\000\000\000]\000\000\000\014\000\000\000\335\000\000\000\035\000\000\000\034\000\000\000\003\000\000\000\005\000\000\000B\000\000\000\033\000\000\000 \000\000\000\"\000\000\000\000\000\000\000\n\000\000\000\003\000\000\000\005\000\000\000B\000\000\0003\000\000\000\002\000\000\000L\000\000\000$\000\000\000;\000\000\000R\000\000\000\376\003\000\000\343\002\000\000&\000\000\000#\000\000\000\001\000\000\000\214\000\000\000I\000\000\000\000\000\000\000\312\000\000\000\211\000\000\000\362\003\000\000\316\000\000\000\010\000\000\000\201\003\000\000\202\003\000\000]\000\000\000\010\000\000\000B\002\000\000\306\002\000\000\010\000\000\000\315\002\000\000\315\002\000\000\010\000\000\000Q\002\000\000l\000\000\000\322\002\000\000C\000\000\000\316\002\000\000\000\000\000\000\034\000\000\0000\000\000\000\003\000\000\000\340\002\000\000\363\000\000\000~\001\000\000\007\001\000\000\001\000\000\000B\000\000\000\033\000\000\000 \000\000\000\"\000\000\000u\000\000\000\212\000\000\000]\000\000\000*\000\000\000\r\000\000\000\002\000\000\000\006\000\000\000\362\000\000\000\177\000\000\000b\000\000\0004\000\000\000L\000\000\000J\000\000\000\224\003\000\000\001\000\000\000\210\000\000\000J\002\000\000\003\000\000\000\000\000\000\000u\000\000\000\212\000\000\000]\000\000\000\272\000\000\000\022\000\000\000&\001\000\000\241\002\000\000\027\001\000\000\022\003\000\000\235\000\000\000J\000\000\000\024\004\000\000\300\002\000\000\031\000\000\000\027\000\000\000\'\000\000\000\034\000\000\000B\000\000\0003\000\000\000\t\000\000\000F\000\000\000\002\000\000\000\202\004\000\000\020\001\000\000\017\000\000\000\020\000\000\000\272\002\000\000\r\002\000\000\000\000\000\000b\000\000\0004\000\000\000\001\000\000\000&\000\000\000#\000\000\000:\000\000\000?\000\000\000 \000\000\000\"\000\000\000u\000\000\000\212\000\000\000]\000\000\000\267\000\000\000\016\000\000\000\267\000\000\000\216\000\000\000B\000\000\0003\000\000\000\350\001\000\000\221\000\000\000\000\000\000\000\353\000\000\000\004\000\000\000n\000\000\0007\002\000\000 \000\000\000\"\000\000\000\001\000\000\000\214\000\000\000I\000\000\000\000\000\000\0009\000\000\000\343\000\000\000N\000\000\0004\000\000\000\032\000\000\000p\000\000\000G\000\000\000\001\000\000\000u\000\000\000\212\000\000\000]\000\000\000~\000\000\000\246\002\000\000:\000\000\000\005\000\000\000\210\000\000\000\240\000\000\000\267\000\000\000\016\000\000\000\267\000\000\000<\001\000\000\002\000\000\000\006\000\000\000\\\000\000\000q\000\000\000\000\000\000\000 \000\000\000\"\000\000\000,\000\000\000\n\000\000\000@\000\000\000[\001\000\000\005\000\000\000y\000\000\000\003\000\000\000\321\001\000\000\377\000\000\000u\000\000\000\212\000\000\000]\000\000\000\001\000\000\000\373\000\000\000\375\000\000\000\370\001\000\000Z\000\000\000\000\000\000\000\200\000\000\000\250\000\000\000,\001\000\000\001\000\000\000\003\000\000\000k\000\000\000\274\000\000\000\001\000\000\0007\000\000\000O\000\000\000\013\000\000\000\253\000\000\000\013\000\000\000\240\000\000\000\031\000\000\000\'\000\000\000.\000\000\000\001\000\000\000\201\000\000\000\203\000\000\000\000\000\000\000\272\003\000\000Y\000\000\000\\\000\000\000\004\000\000\000j\000\000\000c\000\000\000\001\000\000\0007\000\000\000O\000\000\000`\000\000\0002\000\000\000>\000\000\000\000\000\000\000$\000\000\000\305\000\000\000m\000\000\000d\000\000\000\001\000\000\000\241\000\000\000\244\000\000\000\016\000\000\000\201\000\000\000\203\000\000\000\002\000\000\000\005\000\000\000b\000\000\0004\000\000\000\001\000\000\000&\000\000\000#\000\000\000U\003\000\000R\003\000\000G\000\000\000\000\000\000\000:\000\000\000\n\000\000\000@\000\000\0008\002\000\000k\000\000\000\274\000\000\000(\004\000\000\004\000\000\000\020\000\000\000\005\004\000\000\000\000\000\0006\001\000\000\251\000\000\000u\000\000\000\212\000\000\000]\000\000\000\370\001\000\000Z\000\000\000\001\000\000\000 \000\000\000\"\000\000\000A\000\000\000Y\000\000\000g\000\000\000 \000\000\000\"\000\000\000\002\000\000\000\006\000\000\000\200\000\000\000\255\000\000\000)\000\000\000\001\000\000\000\003\000\000\000\000\000\000\000\353\000\000\000\031\000\000\000u\000\000\000\212\000\000\000]\000\000\000\272\000\000\000\022\000\000\000\004\000\000\000j\000\000\000\370\001\000\000Z\000\000\000\327\000\000\000\302\000\000\000\000\000\000\000\024\000\000\000\n\000\000\000\024\000\000\000\005\000\000\000\201\000\000\000\203\000\000\000(\000\000\000z\000\000\000\023\003\000\000\013\000\000\000 \000\000\000\"\000\000\0007\000\000\000O\000\000\000\001\000\000\000\014\001\000\000\315\001\000\0003\000\000\000\000\000\000\000\335\001\000\000\035\000\000\000a\000\000\000\224\000\000\0008\001\000\000\365\000\000\000\013\000\000\000_\000\000\000\246\000\000\000\000\000\000\000$\000\000\000\345\000\000\000\024\000\000\000\n\000\000\000\024\000\000\000\005\000\000\000(\000\000\000z\000\000\000*\000\000\000\t\000\000\000c\000\000\000 \000\000\000\"\000\000\0007\000\000\000O\000\000\000>\000\000\000\000\000\000\000u\000\000\000\212\000\000\000]\000\000\000\272\000\000\000\022\000\000\000\322\001\000\000\004\000\000\000\001\000\000\000E\001\000\000!\001\000\000\241\000\000\000\267\001\000\000R\000\000\000\201\000\000\000\203\000\000\000\017\000\000\000j\000\000\0007\000\000\000O\000\000\000\002\000\000\000\006\000\000\000\\\000\000\000q\000\000\000\000\000\000\000?\000\000\0007\002\000\000u\000\000\000\212\000\000\000]\000\000\000 \000\000\000\"\000\000\000\300\001\000\000\344\001\000\000\031\000\000\000S\000\000\000_\000\000\000 \000\000\000\"\000\000\000\000\000\000\000b\000\000\0004\000\000\000:\000\000\000s\001\000\000\027\000\000\000\'\000\000\000\034\000\000\000(\001\000\000\"\000\000\000\002\000\000\0007\002\000\000u\000\000\000\212\000\000\000]\000\000\000\001\000\000\000 \000\000\000\"\000\000\000\000\000\000\000?\000\000\000 \000\000\000\"\000\000\000,\000\000\000{\000\000\000\217\000\000\000*\000\000\000\r\000\000\000\000\000\000\000\031\000\000\000\017\000\000\000\020\000\000\000*\000\000\000\r\000\000\000\363\000\000\000\031\001\000\000\000\003\000\000\254\000\000\000S\001\000\000(\000\000\000\000\000\000\000\031\000\000\000 \000\000\000\"\000\000\000,\000\000\0009\003\000\000\223\000\000\000\000\000\000\000v\000\000\000\031\001\000\0005\000\000\000M\000\000\000$\000\000\000\005\000\000\000u\000\000\000\212\000\000\000]\000\000\000\033\000\000\000S\000\000\0002\000\000\000\303\002\000\000\254\000\000\000\002\000\000\000\006\000\000\000 \000\000\000\"\000\000\000,\000\000\000{\000\000\000\016\000\000\000>\000\000\000\000\000\000\000%\000\000\000w\001\000\000{\000\000\000\217\000\000\000\031\000\000\000\027\000\000\000\004\000\000\000\020\000\000\000K\000\000\000\265\000\000\000\255\000\000\000\207\001\000\000\001\000\000\000c\000\000\000-\001\000\000\000\001\000\000\000\000\000\000\265\000\000\000\216\001\000\000\'\000\000\000K\000\000\000\000\000\000\000\236\000\000\000\343\000\000\000\n\000\000\000\224\002\000\000\345\000\000\000\031\000\000\000[\001\000\000\034\000\000\000\354\000\000\000r\001\000\000\241\000\000\000\221\000\000\000\272\000\000\000n\003\000\000p\003\000\000\000\000\000\000L\000\000\000$\000\000\000N\000\000\000\001\000\000\000_\000\000\000\246\000\000\000\024\000\000\000\310\000\000\000\332\000\000\000\030\001\000\000\232\001\000\000\306\000\000\000\000\000\000\000+\000\000\000\026\000\000\000M\000\000\000a\001\000\000\002\000\000\000\006\000\000\000D\000\000\000\003\000\000\000\216\000\000\000B\000\000\0003\000\000\000P\000\000\000\032\000\000\000@\001\000\000\221\000\000\000>\000\000\000\000\000\000\000b\000\000\0004\000\000\000@\000\000\000\207\000\000\0002\000\000\000)\000\000\000^\001\000\000+\000\000\000\004\000\000\000\020\000\000\000\'\000\000\000.\000\000\000\001\000\000\000 \000\000\000\"\000\000\000\266\000\000\000p\000\000\000_\000\000\000\246\000\000\000\000\000\000\000N\000\000\000\001\000\000\000W\001\000\000\216\000\000\000,\000\000\0007\000\000\000)\000\000\000\200\000\000\000\034\000\000\000\000\000\000\000\236\000\000\000\343\000\000\000Y\000\000\000G\000\000\000\'\000\000\000\034\000\000\000\254\000\000\000\001\001\000\000W\001\000\000\216\000\000\000,\000\000\000\001\000\000\000\373\000\000\000\375\000\000\000d\001\000\000\276\000\000\000\010\000\000\000\266\000\000\000p\000\000\000y\000\000\000>\002\000\000\010\000\000\000\232\001\000\000\306\000\000\000\030\001\000\000\237\000\000\000\003\000\000\000W\001\000\000\254\001\000\000\n\000\000\000\215\004\000\000\001\000\000\000\002\000\000\000\006\000\000\000\330\002\000\000T\001\000\000\016\000\000\0001\000\000\000\000\000\000\000b\000\000\000)\001\000\000R\000\000\000B\000\000\0003\000\000\000P\001\000\000\004\000\000\000\020\000\000\000*\000\000\000\r\000\000\000\000\000\000\000?\000\000\000B\000\000\0003\000\000\000\207\000\000\0002\000\000\000\000\000\000\000q\000\000\000E\000\000\000\356\000\000\000;\000\000\000a\000\000\000\323\001\000\000\253\001\000\000 \002\000\000\000\000\000\000\031\000\000\000E\002\000\000\201\001\000\000\355\000\000\000\201\001\000\000\261\000\000\000\207\000\000\000\t\000\000\000s\001\000\000u\000\000\000\000\000\000\000y\001\000\000\031\000\000\000^\001\000\000+\000\000\000#\002\000\000\005\002\000\000\000\000\000\000T\000\000\000\017\000\000\000\020\000\000\000\224\001\000\000\220\000\000\000\271\001\000\000\277\000\000\000A\000\000\000X\004\000\000\247\000\000\000\002\000\000\000\005\000\000\000@\001\000\000\020\000\000\000\000\003\000\000\254\000\000\000G\000\000\000\000\000\000\000B\000\000\000\033\000\000\000\001\000\000\000\031\001\000\000\251\000\000\000@\000\000\000\'\000\000\000\225\000\000\000)\004\000\000\'\000\000\000\010\002\000\000\207\002\000\000\000\000\000\000D\000\000\000\003\000\000\000\224\002\000\000\345\000\000\000\031\000\000\000B\000\000\0003\000\000\000\031\001\000\000\251\000\000\000\000\000\000\000\265\000\000\000\216\001\000\000\n\000\000\000M\000\000\000a\001\000\000\000\000\000\0009\000\000\000\343\000\000\000\017\000\000\000\020\000\000\000\303\002\000\000\254\000\000\000\013\000\000\000M\000\000\000\024\000\000\000^\001\000\000\n\000\000\000+\000\000\000\002\000\000\000\006\000\000\000\013\000\000\000n\000\000\000=\000\000\000\032\000\000\000\030\000\000\000\037\000\000\000M\000\000\000\024\000\000\000@\000\000\000#\004\000\000r\000\000\000r\003\000\000\001\000\000\000\302\002\000\000\\\004\000\000\000\000\000\000$\000\000\000u\000\000\000\212\000\000\000]\000\000\000\030\000\000\000\037\000\000\000\001\000\000\000\332\000\000\000\030\001\000\000\232\001\000\000\306\000\000\000\337\003\000\000\n\001\000\000R\000\000\000\331\003\000\000\351\001\000\000B\000\000\0003\000\000\000\000\000\000\000D\000\000\000t\001\000\000\000\001\000\000 \000\000\000\"\000\000\000P\000\000\000\032\000\000\000\034\000\000\000\003\000\000\000\272\000\000\000\022\000\000\000\220\000\000\000\004\000\000\000\254\000\000\000\001\001\000\000\016\000\000\000\022\000\000\000 \000\000\000\"\000\000\000,\000\000\000\224\000\000\000\205\000\000\000\266\000\000\000p\000\000\000\000\000\000\000\216\000\000\000 \000\000\000\"\000\000\000_\000\000\000\246\000\000\000\001\000\000\000Y\000\000\000g\000\000\000\254\000\000\000\001\001\000\000\232\000\000\000)\002\000\000\232\001\000\000\306\000\000\000\001\000\000\000y\000\000\000~\002\000\000\340\002\000\000\321\003\000\000\002\000\000\000\006\000\000\000L\000\000\000$\000\000\000\\\000\000\000u\000\000\000\212\000\000\000]\000\000\000\355\000\000\000B\000\000\0003\000\000\000\001\000\000\000 \000\000\000\"\000\000\000*\000\000\000\032\000\000\000\336\000\000\000\221\000\000\000\000\000\000\000N\000\000\000\213\000\000\000\272\000\000\000\022\000\000\000W\001\000\000\216\000\000\000,\000\000\000\001\000\000\000Y\000\000\000G\000\000\000\004\000\000\000\254\000\000\000\000\000\000\000\213\000\000\000 \002\000\000\217\000\000\000\031\000\000\000\017\000\000\000j\000\000\000\254\000\000\000\027\002\000\000G\000\000\000R\000\000\000>\000\000\000\000\000\000\000N\000\000\000\024\000\000\000\321\001\000\000\'\000\000\000.\000\000\000a\000\000\000\225\002\000\000\207\000\000\000\'\000\000\000\034\000\000\000 \000\000\000\"\000\000\000\313\001\000\000\032\000\000\000\001\000\000\000y\000\000\000~\002\000\000\001\000\000\000W\001\000\000\216\000\000\000@\001\000\000\020\000\000\000\225\000\000\000\316\000\000\000\254\000\000\000\001\001\000\000\232\001\000\000\306\000\000\000\216\000\000\000{\000\000\000\206\000\000\000\000\000\000\000\017\000\000\000\204\000\000\000i\000\000\000\255\000\000\000)\000\000\000\002\000\000\0009\000\000\000\343\000\000\000\017\000\000\000\005\000\000\000=\000\000\000\032\000\000\000@\001\000\000_\000\000\000#\000\000\000e\001\000\000\001\000\000\000\276\001\000\000Z\000\000\000\024\000\000\000\327\000\000\000\033\000\000\000\000\000\000\000$\000\000\000\345\000\000\000\207\001\000\000\330\001\000\000\025\000\000\000\032\000\000\000\243\000\000\000\367\000\000\000\001\000\000\000\351\001\000\000\260\002\000\000\033\000\000\000:\000\000\000\204\000\000\000i\000\000\000\255\000\000\000)\000\000\000\002\000\000\000\006\000\000\0002\000\000\000\005\000\000\000\035\000\000\0008\000\000\000<\001\000\000\276\001\000\000B\000\000\000\033\000\000\000\300\001\000\000\031\000\000\000B\000\000\0003\000\000\000M\000\000\000\024\000\000\000\312\000\000\000\301\001\000\000\034\000\000\000\002\000\000\000N\001\000\000x\001\000\000\000\000\000\000b\000\000\000\236\000\000\000\n\000\000\000\277\000\000\000\022\000\000\000B\000\000\000\033\000\000\000\001\000\000\000=\000\000\000c\000\000\000\235\000\000\000J\000\000\000\350\001\000\000\030\003\000\000\000\000\000\000B\000\000\000\033\000\000\000\007\002\000\000q\000\000\000\'\001\000\000\005\000\000\000\315\000\000\000T\000\000\000\334\000\000\000\252\000\000\000\001\000\000\000G\002\000\000\223\002\000\000\000\000\000\000%\001\000\000\003\000\000\0001\000\000\0002\000\000\000\005\000\000\000B\000\000\000\033\000\000\000\235\000\000\000J\000\000\000\333\000\000\000(\000\000\000z\000\000\000\001\000\000\000P\000\000\000\022\000\000\000\010\000\000\000 \000\000\000\"\000\000\000,\000\000\000\252\000\000\000\265\001\000\000\367\003\000\000F\004\000\000\001\000\000\000\'\000\000\000.\000\000\000\000\000\000\000\'\000\000\000\034\000\000\000&\001\000\000\241\002\000\000\027\001\000\000\022\003\000\000\235\000\000\000J\000\000\000\"\001\000\000\325\001\000\000.\000\000\000\000\000\000\000\312\000\000\000\211\000\000\000#\002\000\000\005\002\000\000\010\000\000\000a\000\000\000\323\001\000\000\010\000\000\000\264\001\000\000.\001\000\000\010\000\000\000\251\000\000\000l\003\000\000\002\000\000\000\006\000\000\000D\000\000\000\003\000\000\000;\000\000\000R\000\000\000\004\000\000\000Q\001\000\0007\001\000\000\023\000\000\000\000\000\000\000B\000\000\0003\000\000\000*\000\000\000\032\000\000\000\001\000\000\000\210\000\000\000\206\000\000\000\030\001\000\000\237\000\000\000\315\000\000\000T\000\000\000u\000\000\000\212\000\000\000]\000\000\000\207\000\000\000;\001\000\000\016\000\000\0001\000\000\000\177\002\000\000\240\000\000\000\034\000\000\000\000\000\000\0009\000\000\000 \000\000\000\"\000\000\000,\000\000\000\001\000\000\000\265\002\000\000O\000\000\000\003\000\000\000A\001\000\000C\004\000\000\001\000\000\000\000\000\000\000\n\000\000\000\031\002\000\000\005\000\000\0001\000\000\000\005\000\000\000B\000\000\000\033\000\000\000\003\000\000\000\004\000\000\000\020\000\000\000\014\000\000\000\000\000\000\000\005\000\000\000B\000\000\0003\000\000\000\003\000\000\000d\002\000\000\307\000\000\000\004\000\000\000\020\000\000\000\014\000\000\000\002\000\000\000\017\000\000\000:\000\000\000%\000\000\000\253\001\000\000\355\001\000\000\\\000\000\000 \000\000\000\"\000\000\000,\000\000\000?\000\000\000B\000\000\000\033\000\000\000#\001\000\000\206\002\000\000\031\000\000\000B\000\000\0003\000\000\000>\000\000\000\000\000\000\000~\001\000\000b\001\000\000*\000\000\000\t\000\000\000\t\001\000\000\035\000\000\000\001\000\000\000N\004\000\000\254\001\000\000\000\000\000\0009\000\000\000L\000\000\000\013\000\000\000\001\000\000\000\n\000\000\000\201\000\000\000\203\000\000\000\005\000\000\000b\000\000\000\353\000\000\000\016\000\000\000\000\000\000\000Y\000\000\000S\000\000\000\353\001\000\000E\000\000\0005\000\000\000~\004\000\000\356\002\000\000/\000\000\000@\000\000\000\002\000\000\000\006\000\000\000L\000\000\000$\000\000\000\n\000\000\000\003\000\000\0001\000\000\000B\000\000\000\033\000\000\000\253\000\000\000\013\000\000\000\250\002\000\000\364\000\000\000\000\000\000\000\035\000\000\0008\000\000\0005\000\000\000\257\001\000\000B\000\000\0003\000\000\000\300\001\000\000\000\000\000\0009\000\000\000\003\000\000\000B\000\000\000\033\000\000\000\235\000\000\000J\000\000\000\027\001\000\000h\000\000\000\027\000\000\000\004\000\000\000n\000\000\000\266\000\000\000p\000\000\000\001\000\000\000*\001\000\000\"\001\000\000\000\000\000\000\315\000\000\000T\000\000\0003\001\000\000\206\000\000\000\232\001\000\000\306\000\000\000\'\000\000\000\332\000\000\000\000\000\000\0009\000\000\000B\000\000\0003\000\000\000\n\000\000\000\310\000\000\000.\000\000\000\000\000\000\0003\001\000\000\206\000\000\000\001\000\000\000i\001\000\000\004\001\000\000\203\000\000\000\310\000\000\000\035\000\000\000\002\000\000\000\017\000\000\000\003\000\000\000\354\000\000\000\004\000\000\000\020\000\000\000\365\000\000\000\233\000\000\000\002\000\000\000\006\000\000\000\354\000\000\000Q\001\000\000\020\000\000\000\365\000\000\000\233\000\000\000\000\000\000\000\014\000\000\000\335\000\000\000\001\000\000\000 \000\000\000\"\000\000\000\254\001\000\000\037\002\000\000\267\000\000\000\016\000\000\000\267\000\000\000\203\003\000\000\373\003\000\000\000\000\000\000 \000\000\000\"\000\000\000,\000\000\000)\001\000\000)\000\000\000\001\000\000\000\n\000\000\000\004\000\000\000d\000\000\000\000\000\000\000T\000\000\000\361\000\000\000\025\001\000\000.\000\000\000\361\002\000\000\001\000\000\000*\001\000\000\"\001\000\000:\000\000\000\n\000\000\000\004\000\000\000d\000\000\000\000\000\000\0009\000\000\000\017\000\000\000j\000\000\000\n\000\000\000\004\000\000\000d\000\000\000\003\000\000\000\370\001\000\000Z\000\000\000L\000\000\000\013\000\000\000 \000\000\000\"\000\000\000&\000\000\000#\000\000\000/\000\000\000@\000\000\000H\000\000\000\266\001\000\000\260\001\000\000\001\000\000\000\365\000\000\000\233\000\000\000\230\000\000\000\004\000\000\000\002\000\000\000\\\000\000\000\014\000\000\0004\000\000\000)\001\000\000)\000\000\000\n\000\000\000\004\000\000\000d\000\000\000\000\000\000\000\003\001\000\000\305\000\000\000m\000\000\000d\000\000\000\001\000\000\000\030\000\000\000\037\000\000\000\024\000\000\000\310\000\000\000\224\000\000\000\205\000\000\000H\000\000\000.\000\000\000\371\000\000\000,\000\000\000H\000\000\000\334\000\000\000\001\000\000\000\n\000\000\000\004\000\000\000d\000\000\000\000\000\000\000%\000\000\000@\000\000\000+\000\000\000\022\000\000\000B\000\000\0003\000\000\000c\000\000\000\t\000\000\000\001\000\000\000/\000\000\000@\000\000\000\002\000\000\000\006\000\000\000\005\000\000\000\014\000\000\000\335\000\000\0007\000\000\000O\000\000\000\210\000\000\000\206\000\000\000\001\000\000\000\232\000\000\000>\000\000\000\000\000\000\000@\000\000\000R\004\000\000\t\000\000\000`\000\000\000\250\001\000\000j\000\000\000\025\000\000\000\032\000\000\000/\000\000\000@\000\000\000\002\000\000\000\006\000\000\000\005\000\000\000G\000\000\000w\000\000\0002\000\000\000G\002\000\000\223\002\000\000\000\000\000\000\026\000\000\000\016\000\000\000\235\000\000\000J\000\000\000\031\000\000\000\027\000\000\000G\000\000\000*\000\000\000G\002\000\000k\001\000\000\001\000\000\000\017\000\000\000n\000\000\000\014\000\000\000\000\000\000\000\233\000\000\000\022\000\000\000\213\000\000\000\200\002\000\000\010\001\000\000\010\000\000\000\231\001\000\000\010\000\000\0002\001\000\000\032\000\000\000W\000\000\000\030\003\000\000B\004\000\000u\001\000\000\000\000\000\000g\000\000\0004\000\000\000\001\000\000\000 \000\000\000\"\000\000\000\024\000\000\000\327\000\000\000\253\000\000\000\013\000\000\000\213\000\000\000\013\000\000\000\265\000\000\000W\003\000\000\204\001\000\000`\000\000\000\016\000\000\000\002\000\000\0009\000\000\000\236\001\000\000\007\000\000\000E\000\000\000\017\000\000\000\004\000\000\000\306\000\000\000\014\000\000\000\000\000\000\000g\000\000\0004\000\000\000\n\000\000\000[\001\000\000R\000\000\000\320\000\000\000O\000\000\000\017\000\000\000n\000\000\000\361\000\000\000\025\001\000\000\000\000\000\000\005\000\000\000#\002\000\000\321\000\000\000\r\001\000\000\217\000\000\000\001\000\000\000>\000\000\000\242\001\000\000\000\000\000\000\260\001\000\000\261\001\000\000\200\000\000\000\255\002\000\000\277\002\000\000\000\000\000\000\200\000\000\0002\002\000\000\335\001\000\000\002\000\000\000\376\001\000\000r\000\000\000\014\000\000\000\335\000\000\000 \003\000\000\221\000\000\000\005\000\000\000\004\000\000\000\230\001\000\000\000\000\000\000%\000\000\000\370\000\000\000+\000\000\000\027\000\000\000\354\002\000\000$\001\000\000\265\000\000\000[\000\000\000\000\000\000\000\236\000\000\000\343\000\000\000\333\000\000\000 \000\000\000\"\000\000\0008\001\000\000k\001\000\000\001\000\000\000>\000\000\000\004\001\000\000\224\000\000\000o\000\000\000\027\000\000\000\002\000\000\000\006\000\000\000\312\000\000\000\211\000\000\0001\000\000\000\314\001\000\000J\001\000\000\017\000\000\000\020\000\000\000\322\000\000\000\350\000\000\000\000\000\000\000y\001\000\000\257\001\000\000o\000\000\000?\001\000\000\003\002\000\000\023\000\000\000\003\000\000\000\344\002\000\000\007\001\000\000\001\000\000\000\236\002\000\000\322\000\000\000P\000\000\000\022\000\000\000\000\000\000\000D\000\000\000\362\000\000\000\177\000\000\000\'\000\000\000\034\000\000\000(\001\000\000\t\000\000\0005\000\000\000\204\000\000\000i\000\000\000\312\001\000\000y\000\000\000\314\001\000\000J\001\000\000\002\000\000\000\005\000\000\000P\002\000\000C\000\000\000C\000\000\000Q\000\000\000G\000\000\000\'\000\000\000\035\000\000\000\004\000\000\000\031\001\000\000\251\000\000\000(\000\000\000z\000\000\000\003\000\000\000\035\000\000\000(\001\000\000\t\000\000\000\000\000\000\000\221\001\000\000q\000\000\000g\000\000\0004\000\000\000\253\000\000\000\013\000\000\000\r\001\000\000\217\000\000\000\000\000\000\000D\000\000\000\003\000\000\000\013\000\000\000\'\000\000\000<\001\000\000\001\000\000\000~\002\000\000y\000\000\000\200\000\000\000.\000\000\000a\000\000\000\246\003\000\000\370\000\000\000\002\000\000\000g\000\000\0004\000\000\000\277\000\000\000\022\000\000\000\017\000\000\000\003\000\000\000\004\000\000\000j\000\000\000\204\000\000\000i\000\000\0002\002\000\000\335\001\000\000\010\000\000\000\312\001\000\000;\002\000\000X\001\000\000\033\000\000\000\001\000\000\000 \001\000\000\355\002\000\000\000\000\000\000\005\000\000\000\335\002\000\000Z\002\000\000>\000\000\000\242\001\000\000\000\000\000\000\n\000\000\000[\000\000\000F\001\000\000\002\002\000\000\323\003\000\000k\000\000\000\274\000\000\000\000\000\000\000k\000\000\000\274\000\000\000\001\000\000\000\005\002\000\000`\000\000\000v\001\000\000\240\000\000\000.\000\000\000\001\000\000\000\024\002\000\000\374\000\000\000\002\000\000\000\006\000\000\000\017\000\000\000n\000\000\000P\000\000\000\022\000\000\000?\003\000\000\221\000\000\000\230\001\000\000\016\000\000\000%\000\000\000\003\000\000\0001\000\000\000\000\000\000\000c\000\000\000\001\000\000\000\014\000\000\000\335\000\000\000Y\000\000\000S\000\000\000\024\000\000\000\310\000\000\000\200\000\000\0002\002\000\000\335\001\000\000a\000\000\000\"\002\000\000\343\003\000\000 \000\000\000\"\000\000\0008\001\000\000k\001\000\000\000\000\000\0009\000\000\000\017\000\000\000j\000\000\000c\000\000\000\001\000\000\000 \000\000\000\"\000\000\000\272\002\000\000\r\002\000\000\000\000\000\000\022\000\000\000\004\000\000\000n\000\000\000=\000\000\000\032\000\000\000\030\000\000\000\037\000\000\000\224\000\000\000\205\000\000\000\027\000\000\000\'\000\000\000\034\000\000\000c\000\000\000\001\000\000\0009\001\000\000/\001\000\000i\001\000\000\004\001\000\000\002\000\000\000\006\000\000\000%\000\000\000I\000\000\000o\000\000\000\001\000\000\000\275\000\000\000\264\000\000\000\014\001\000\000\315\001\000\000\016\000\000\000\353\000\000\000\000\000\000\000\013\000\000\000\'\000\000\000\034\000\000\000\252\002\000\000\r\000\000\000e\000\000\000\371\000\000\000,\000\000\000t\001\000\000\000\001\000\000B\000\000\0003\000\000\000\213\001\000\000^\000\000\000\000\000\000\000:\000\000\000\013\000\000\000\'\000\000\000\034\000\000\000c\000\000\000\001\000\000\000\030\000\000\000\037\000\000\000\005\000\000\000`\000\000\0002\000\000\000\002\000\000\000\273\000\000\000@\000\000\000\207\000\000\0002\000\000\000t\001\000\000\000\001\000\000\001\000\000\000\006\001\000\000\227\001\000\000\213\001\000\000^\000\000\000\334\000\000\000\235\000\000\000J\000\000\000\301\002\000\000.\000\000\000\000\000\000\000D\000\000\000N\000\000\0004\000\000\000_\000\000\000\246\000\000\000V\000\000\000\001\000\000\000\204\000\000\000i\000\000\000\254\001\000\000\000\000\000\000\247\000\000\000\336\001\000\000:\000\000\000\n\000\000\000\300\002\000\000\205\001\000\000\002\000\000\000\232\000\000\000>\000\000\000\000\000\000\000\005\000\000\000\'\000\000\000\034\000\000\000\347\001\000\000\251\000\000\000\322\000\000\000\350\000\000\000:\000\000\0009\002\000\000\367\002\000\000.\000\000\000\001\000\000\000\r\000\000\000e\000\000\000\002\000\000\000\006\000\000\000\312\000\000\000\211\000\000\0001\000\000\000\000\000\000\000\253\000\000\000\013\000\000\000\305\000\000\000m\000\000\000\347\001\000\000\251\000\000\000\001\000\000\000\r\000\000\000e\000\000\000\310\001\000\000\036\002\000\000U\000\000\000\337\000\000\000\007\000\000\000E\000\000\000\010\000\000\000\236\001\000\000\007\000\000\000E\000\000\000\010\000\000\000\007\000\000\000\007\000\000\000E\000\000\000\000\000\000\0002\000\000\000\005\000\000\000w\000\000\000\014\000\000\0001\000\000\000\001\000\000\000\r\000\000\000e\000\000\000\030\000\000\000\037\000\000\000\035\000\000\0005\000\000\000\003\000\000\000L\003\000\000\t\000\000\000\005\000\000\000\003\002\000\000\031\000\000\0007\001\000\000\023\000\000\000o\000\000\000\000\000\000\000g\000\000\0004\000\000\000\001\000\000\000=\000\000\000y\000\000\000,\000\000\000\'\000\000\000o\001\000\000\307\002\000\000I\003\000\000\031\000\000\000\362\000\000\000\177\000\000\000\014\000\000\000\335\000\000\000\001\000\000\000\210\000\000\000\206\000\000\000\002\000\000\000\004\000\000\000\020\000\000\000\r\000\000\000e\000\000\000\024\000\000\000\321\001\000\000\233\001\000\000\020\001\000\000N\000\000\000\001\000\000\000I\000\000\000*\001\000\000\014\000\000\000\335\000\000\000\262\001\000\000\273\001\000\000+\000\000\000/\001\000\000\000\000\000\000\204\000\000\000i\000\000\000\255\000\000\000)\000\000\000\000\000\000\000D\000\000\000b\000\000\0004\000\000\000\362\000\000\000\177\000\000\000\353\000\000\000\031\000\000\000\001\000\000\0002\000\000\000b\004\000\000\003\000\000\000\000\000\000\000\275\000\000\000\264\000\000\000\033\000\000\0009\002\000\000V\002\000\000u\004\000\000T\000\000\000\023\000\000\000Q\003\000\000\014\000\000\000\001\000\000\000+\000\000\000V\001\000\000\r\000\000\000e\000\000\000\002\000\000\000\006\000\000\000\003\001\000\000\305\000\000\000m\000\000\000d\000\000\000\001\000\000\000\r\000\000\000e\000\000\000A\000\000\000\030\000\000\000\037\000\000\000\372\000\000\000@\000\000\000\005\000\000\000\017\000\000\000K\001\000\000 \000\000\000\"\000\000\0008\001\000\000k\001\000\000G\000\000\000\217\001\000\000`\000\000\000O\001\000\000N\001\000\000x\001\000\000\000\000\000\000b\000\000\000\n\000\000\000\277\000\000\000\022\000\000\000\004\000\000\000n\000\000\000\252\002\000\000\r\000\000\000e\000\000\000\235\000\000\000J\000\000\000;\000\000\000*\002\000\000\000\000\000\000N\000\000\0004\000\000\000:\000\000\000\005\000\000\000K\000\000\000\030\001\000\0009\001\000\000/\001\000\000\000\000\000\000\233\000\000\000\022\000\000\000@\001\000\000\020\000\000\000P\000\000\000\032\000\000\0005\000\000\000\'\001\000\000U\000\000\0009\001\000\000/\001\000\000$\004\000\000\261\001\000\000\000\000\000\000\232\000\000\000>\000\000\000\273\000\000\000@\000\000\000\207\000\000\0002\000\000\000\017\000\000\000\301\000\000\000/\002\000\0003\000\000\000\027\000\000\000\004\000\000\000Z\001\000\000\'\000\000\000\035\000\000\000\001\000\000\000i\001\000\000\236\002\000\000\000\000\000\000\213\000\000\000\201\000\000\000\203\000\000\000\001\000\000\000\n\000\000\000\310\000\000\000.\000\000\000\000\000\000\000\233\002\000\000\354\001\000\0007\000\000\000O\000\000\000\235\000\000\000J\000\000\000<\001\000\000\031\000\000\000\005\000\000\000_\000\000\000\246\000\000\000\n\000\000\000.\000\000\000\001\000\000\000P\000\000\000\032\000\000\000\000\000\000\000\004\000\000\000n\000\000\000\030\000\000\000\037\000\000\000\334\002\000\000q\000\000\000\005\000\000\0009\001\000\000/\001\000\000\002\000\000\000\006\000\000\000\354\000\000\000Q\001\000\000\000\000\000\000b\000\000\000\n\000\000\000\277\000\000\000\022\000\000\000\252\002\000\000\r\000\000\000e\000\000\000\n\000\000\000\024\000\000\000V\000\000\000c\000\000\000\001\000\000\0007\000\000\000O\000\000\000\000\000\000\000N\000\000\0004\000\000\000\004\000\000\000\202\000\000\000\005\000\000\000\202\001\000\000;\001\000\000\000\000\000\000%\001\000\000\003\000\000\000\017\000\000\000\020\000\000\000\210\004\000\000\203\000\000\000\310\000\000\000\035\000\000\000\000\000\000\000\236\000\000\000\343\000\000\000N\000\000\0004\000\000\000\013\000\000\000k\000\000\000\274\000\000\000\001\000\000\000\261\000\000\000\032\000\000\000\002\000\000\000;\000\000\000R\000\000\000\'\000\000\000\034\000\000\000\030\000\000\000\037\000\000\0005\000\000\000\003\000\000\000\213\001\000\000^\000\000\000\030\000\000\000\037\000\000\000\000\000\000\000\371\000\000\000,\000\000\000\213\001\000\000^\000\000\000\r\000\000\000e\000\000\000\000\000\000\000\035\000\000\0008\000\000\000)\001\000\000\031\000\000\000\004\000\000\000\020\000\000\000\r\000\000\000e\000\000\000\000\000\000\000@\000\000\000\277\000\000\000\022\000\000\000g\000\000\000\003\001\000\000\301\000\000\000\013\000\000\000\'\000\000\000\034\000\000\000\227\001\000\000\000\000\000\0009\000\000\000\n\000\000\000\003\000\000\000\277\000\000\000\022\000\000\000g\000\000\000\003\001\000\000\301\000\000\000\001\000\000\000\266\000\000\000p\000\000\000_\000\000\000\246\000\000\000\034\000\000\000.\000\000\000\002\000\000\000\006\000\000\000\\\000\000\000\014\000\000\0004\000\000\000\200\000\000\000\005\000\000\000y\000\000\000\n\001\000\000\247\000\000\000\312\000\000\000\000\000\000\000\005\000\000\000y\000\000\000\327\002\000\000p\002\000\000\237\000\000\000>\000\000\000\000\000\000\000\213\001\000\000^\000\000\000\r\000\000\000e\000\000\000\003\000\000\000\'\000\000\000\035\000\000\000\001\000\000\0003\001\000\000\r\002\000\000\000\000\000\000\233\000\000\000\022\000\000\000N\000\000\000\r\000\000\000r\000\000\000\327\002\000\000p\002\000\000\000\000\000\000\265\000\000\000\216\001\000\000\'\000\000\000K\000\000\000\000\000\000\000\244\001\000\000\325\001\000\000\002\001\000\000\243\000\000\000\265\000\000\000[\000\000\000\002\000\000\0002\000\000\000\005\000\000\000\001\000\000\000\004\000\000\000\020\000\000\000\210\000\000\000J\002\000\000\003\000\000\000\000\000\000\000\\\000\000\000\014\000\000\0004\000\000\000\223\000\000\000\234\000\000\000?\000\000\000\265\000\000\000\216\001\000\000\253\001\000\000X\001\000\000\300\001\000\000X\001\000\000\320\000\000\000O\000\000\000\020\000\000\000\n\001\000\000\000\000\000\000\320\000\000\000O\000\000\000\200\000\000\000.\000\000\000\001\000\000\000\r\000\000\000e\000\000\000\277\000\000\000\232\000\000\000>\000\000\000\000\000\000\000\250\001\000\000j\000\000\000\347\001\000\000\251\000\000\000\322\000\000\000\350\000\000\000\r\000\000\000e\000\000\000@\000\000\000\177\002\000\000\177\002\000\000\230\001\000\000\016\000\000\000\002\000\000\000\006\000\000\000T\000\000\000U\000\000\000\r\000\000\000e\000\000\000\031\003\000\000\022\001\000\000\000\000\000\000;\000\000\000R\000\000\000\004\000\000\000n\000\000\000\r\000\000\000e\000\000\000\226\001\000\000\323\001\000\000R\000\000\000\275\001\000\000\342\001\000\000\034\000\000\000\020\000\000\000\r\000\000\000r\000\000\000\000\000\000\000D\000\000\000\275\001\000\000\342\001\000\000\001\000\000\000\236\000\000\000\n\000\000\000\003\000\000\000\215\001\000\0005\001\000\000.\000\000\000\002\000\000\0009\000\000\000\362\000\000\000\177\000\000\0007\000\000\000)\000\000\000\332\001\000\000u\001\000\000\001\000\000\000\003\000\000\000\004\000\000\000\020\000\000\0009\001\000\000\302\000\000\000H\000\000\000\332\000\000\000\001\000\000\000\014\000\000\000\335\000\000\000\000\000\000\000g\000\000\0004\000\000\000T\000\000\000\r\000\000\000e\000\000\000\013\000\000\000K\000\000\000\001\000\000\000\002\003\000\000Y\004\000\000\237\000\000\000\000\000\000\000\013\000\000\000.\000\000\000\001\000\000\000y\002\000\000l\002\000\000\327\000\000\000A\000\000\000t\001\000\000\365\003\000\000\327\000\000\000\002\000\000\000\005\000\000\000;\000\000\000R\000\000\000^\004\000\000&\001\000\000\332\002\000\000M\000\000\000\024\000\000\000(\000\000\0000\000\000\000/\004\000\000\211\001\000\000=\001\000\000/\000\000\000\275\001\000\000\342\001\000\000L\000\000\000\013\000\000\000\014\000\000\000\335\000\000\000\000\000\000\000D\000\000\000|\000\000\000\340\000\000\000\321\002\000\000f\000\000\000}\000\000\000C\000\000\000(\000\000\000c\000\000\000\373\000\000\000\375\000\000\000#\001\000\000\217\000\000\000G\000\000\000K\000\000\000\220\001\000\000\014\000\000\000\335\000\000\000\000\000\000\000\017\000\000\000\335\000\000\000(\000\000\000z\000\000\000\003\000\000\000y\000\000\000I\003\000\000\322\000\000\000T\004\000\000\000\000\000\000\306\000\000\000\222\001\000\000\020\001\000\000\200\000\000\000.\000\000\000\001\000\000\000_\000\000\000\246\000\000\000\000\000\000\000\200\000\000\000K\000\000\000*\001\000\000\"\001\000\000A\000\000\000\r\000\000\000\226\000\000\000\000\000\000\000\221\001\000\000q\000\000\000\003\000\000\000?\000\000\000\204\000\000\000i\000\000\000q\002\000\000\001\000\000\000\275\000\000\000\264\000\000\000#\001\000\000{\000\000\000R\000\000\000\000\000\000\000D\000\000\000\003\000\000\000\275\000\000\000\264\000\000\000@\000\000\000\267\000\000\000\016\000\000\000\267\000\000\000\035\000\000\000\002\000\000\000\006\000\000\000L\000\000\000$\000\000\000\004\000\000\000n\000\000\000\347\000\000\000\202\000\000\000\322\000\000\000\350\000\000\000\r\000\000\000e\000\000\000\001\000\000\000{\000\000\000\206\000\000\000\274\002\000\000\376\002\000\000\000\000\000\000b\000\000\000\252\000\000\000\265\001\000\000\003\000\000\000?\000\000\000\362\000\000\000\177\000\000\000\001\000\000\0007\000\000\000O\000\000\000H\000\000\000\253\000\000\000\013\000\000\000\213\000\000\000\201\000\000\000\203\000\000\000.\000\000\000\000\000\000\000\343\000\000\000\232\000\000\000>\000\000\000H\000\000\000\013\000\000\000`\001\000\000\230\003\000\000\327\000\000\000\001\000\000\000\014\000\000\000#\001\000\000\217\000\000\000\002\000\000\000\233\000\000\000\022\000\000\000g\000\000\0004\000\000\000\003\000\000\000H\000\000\000\204\002\000\000\207\003\000\000\001\000\000\000\014\000\000\000\335\000\000\000\000\000\000\000\262\001\000\000\273\001\000\000 \000\000\000\"\000\000\000\024\000\000\000\327\000\000\000<\001\000\000\000\000\000\000L\000\000\000\010\003\000\000A\002\000\000\001\000\000\000\t\000\000\000\021\002\000\000j\002\000\000\252\000\000\000\247\000\000\000v\001\000\000@\000\000\000\'\000\000\000K\000\000\000\000\000\000\000?\000\000\000g\000\000\0004\000\000\000#\001\000\000\217\000\000\000\001\000\000\000?\002\000\000\000\000\000\000g\000\000\0004\000\000\000:\000\000\000@\000\000\000+\000\000\000\022\000\000\000\017\000\000\000\020\000\000\000\r\000\000\000e\000\000\000\001\000\000\000\002\003\000\000S\000\000\000;\004\000\000\000\000\000\000\236\000\000\000y\002\000\000l\002\000\000\031\000\000\000j\002\000\000\025\002\000\000Y\000\000\000g\000\000\000\014\000\000\000\000\000\000\000+\000\000\000\022\000\000\000\214\002\000\000\016\000\000\000c\000\000\000\261\000\000\000\225\000\000\000 \000\000\000\"\000\000\000\014\000\000\000\335\000\000\000G\000\000\000\243\003\000\000\327\000\000\000\302\000\000\000\002\000\000\000\006\000\000\000=\000\000\000\032\000\000\000\030\000\000\000\037\000\000\000\005\000\000\000\334\000\000\000\252\000\000\000\221\001\000\000q\000\000\000\013\000\000\000\'\000\000\000\034\000\000\000\n\000\000\000\203\000\000\000\000\000\000\000D\000\000\000\211\000\000\000\242\000\000\000N\000\000\000\001\000\000\000\333\002\000\000\314\000\000\000\211\000\000\000\242\000\000\000\203\000\000\000\310\000\000\0003\001\000\0004\004\000\000\000\000\000\000%\000\000\000\024\000\000\000\233\003\000\000 \002\000\000c\000\000\000\001\000\000\000 \000\000\000\"\000\000\000,\000\000\000\000\000\000\000\022\000\000\000g\000\000\000\t\001\000\000\035\000\000\000\001\000\000\000\333\002\000\000\314\000\000\000P\001\000\000\220\000\000\0009\000\000\000{\001\000\000~\001\000\000N\000\000\000\001\000\000\000\n\000\000\000\203\000\000\000\002\000\000\000\006\000\000\000d\002\000\000\307\000\000\000\000\000\000\000b\000\000\000<\002\000\000\240\000\000\0006\002\000\000\343\001\000\000\247\000\000\000v\001\000\000\001\000\000\000O\003\000\000\331\002\000\000\003\000\000\000\204\000\000\000i\000\000\000\255\000\000\000)\000\000\000\001\000\000\000*\000\000\000\r\000\000\000D\001\000\000|\002\000\000\002\000\000\000\006\000\000\000\n\000\000\000=\002\000\000\003\000\000\000\022\002\000\000\023\002\000\000\010\000\000\000m\001\000\000Z\000\000\000K\002\000\000\010\000\000\0008\000\000\000\275\003\000\000\000\000\000\0005\000\000\000)\000\000\000O\003\000\000\331\002\000\000\014\000\000\000\001\000\000\0006\002\000\000\343\001\000\0007\000\000\000O\000\000\000\000\000\000\0009\000\000\000\n\000\000\000\024\000\000\000\037\001\000\000\037\001\000\000\003\000\000\000\244\002\000\000\220\000\000\000\001\000\000\000\376\000\000\000\226\000\000\000\000\000\000\000\017\000\000\000\003\000\000\000H\000\000\000o\001\000\000D\000\000\000:\000\000\000\003\000\000\000H\000\000\000\317\000\000\000\255\003\000\000\001\000\000\000a\000\000\000\241\000\000\000\002\000\000\000\312\000\000\000\211\000\000\0001\000\000\000%\002\000\000t\002\000\000\243\001\000\000\000\000\000\000N\000\000\000\n\000\000\000\037\001\000\000\003\000\000\000\022\002\000\000\023\002\000\000\000\000\000\000\270\000\000\000\003\000\000\000\005\000\000\000\273\000\000\000\001\000\000\0008\000\000\000\010\000\000\000x\000\000\000\272\000\000\000\264\000\000\000L\000\000\000\230\000\000\000\307\000\000\000\001\000\000\000\354\000\000\000r\001\000\000i\001\000\000\004\001\000\000\002\000\000\000\014\000\000\0004\000\000\000\n\000\000\000\005\000\000\0008\000\000\000\000\000\000\000\n\000\000\000\005\000\000\000x\000\000\000\272\000\000\000\264\000\000\000L\000\000\000\000\000\000\000\\\000\000\0007\000\000\000)\000\000\000\355\000\000\000&\002\000\000\016\002\000\000\352\001\000\000@\000\000\000\371\000\000\000,\000\000\000)\001\000\000\004\000\000\000\020\000\000\000\014\000\000\000f\001\000\000\'\001\000\000>\000\000\000\000\000\000\000%\002\000\000t\002\000\000\243\001\000\000M\000\000\000\024\000\000\000@\000\000\000+\000\000\000\022\000\000\000\354\000\000\000r\001\000\000i\001\000\000\004\001\000\000\001\000\000\000\354\000\000\000\004\000\000\000D\002\000\000\r\003\000\000\000\000\000\0009\000\000\000\n\000\000\000@\000\000\000R\000\000\000\346\001\000\000Y\000\000\000g\000\000\000\001\000\000\000\004\000\000\000n\000\000\000\r\000\000\000e\000\000\000\000\000\000\000\371\000\000\000,\000\000\0001\000\000\000\254\003\000\000L\004\000\000\201\001\000\000\010\000\000\000{\001\000\000\010\001\000\000\301\002\000\000\002\000\000\000\006\000\000\000\017\000\000\000j\000\000\000\354\000\000\000r\001\000\000i\001\000\000\004\001\000\000h\000\000\000R\001\000\000\001\000\000\000\277\000\000\000\021\001\000\000\000\000\000\000N\000\000\0007\000\000\000)\000\000\000\262\001\000\000\273\001\000\000\001\000\000\000R\000\000\000 